node {
  name: "global_step/Initializer/zeros/shape_as_tensor"
  op: "Const"
  attr {
    key: "_class"
    value {
      list {
        s: "loc:@global_step"
      }
    }
  }
  attr {
    key: "_output_shapes"
    value {
      list {
        shape {
          dim {
          }
        }
      }
    }
  }
  attr {
    key: "dtype"
    value {
      type: DT_INT32
    }
  }
  attr {
    key: "value"
    value {
      tensor {
        dtype: DT_INT32
        tensor_shape {
          dim {
          }
        }
      }
    }
  }
}
node {
  name: "global_step/Initializer/zeros/Const"
  op: "Const"
  attr {
    key: "_class"
    value {
      list {
        s: "loc:@global_step"
      }
    }
  }
  attr {
    key: "_output_shapes"
    value {
      list {
        shape {
        }
      }
    }
  }
  attr {
    key: "dtype"
    value {
      type: DT_INT64
    }
  }
  attr {
    key: "value"
    value {
      tensor {
        dtype: DT_INT64
        tensor_shape {
        }
        int64_val: 0
      }
    }
  }
}
node {
  name: "global_step/Initializer/zeros"
  op: "Fill"
  input: "global_step/Initializer/zeros/shape_as_tensor"
  input: "global_step/Initializer/zeros/Const"
  attr {
    key: "T"
    value {
      type: DT_INT64
    }
  }
  attr {
    key: "_class"
    value {
      list {
        s: "loc:@global_step"
      }
    }
  }
  attr {
    key: "_output_shapes"
    value {
      list {
        shape {
        }
      }
    }
  }
  attr {
    key: "index_type"
    value {
      type: DT_INT32
    }
  }
}
node {
  name: "global_step"
  op: "VariableV2"
  attr {
    key: "_class"
    value {
      list {
        s: "loc:@global_step"
      }
    }
  }
  attr {
    key: "_output_shapes"
    value {
      list {
        shape {
        }
      }
    }
  }
  attr {
    key: "container"
    value {
      s: ""
    }
  }
  attr {
    key: "dtype"
    value {
      type: DT_INT64
    }
  }
  attr {
    key: "shape"
    value {
      shape {
      }
    }
  }
  attr {
    key: "shared_name"
    value {
      s: ""
    }
  }
}
node {
  name: "global_step/Assign"
  op: "Assign"
  input: "global_step"
  input: "global_step/Initializer/zeros"
  attr {
    key: "T"
    value {
      type: DT_INT64
    }
  }
  attr {
    key: "_class"
    value {
      list {
        s: "loc:@global_step"
      }
    }
  }
  attr {
    key: "_output_shapes"
    value {
      list {
        shape {
        }
      }
    }
  }
  attr {
    key: "use_locking"
    value {
      b: true
    }
  }
  attr {
    key: "validate_shape"
    value {
      b: true
    }
  }
}
node {
  name: "global_step/read"
  op: "Identity"
  input: "global_step"
  attr {
    key: "T"
    value {
      type: DT_INT64
    }
  }
  attr {
    key: "_class"
    value {
      list {
        s: "loc:@global_step"
      }
    }
  }
  attr {
    key: "_output_shapes"
    value {
      list {
        shape {
        }
      }
    }
  }
}
node {
  name: "global_step/IsVariableInitialized"
  op: "IsVariableInitialized"
  input: "global_step"
  attr {
    key: "_class"
    value {
      list {
        s: "loc:@global_step"
      }
    }
  }
  attr {
    key: "_output_shapes"
    value {
      list {
        shape {
        }
      }
    }
  }
  attr {
    key: "dtype"
    value {
      type: DT_INT64
    }
  }
}
node {
  name: "global_step/cond/Switch"
  op: "Switch"
  input: "global_step/IsVariableInitialized"
  input: "global_step/IsVariableInitialized"
  attr {
    key: "T"
    value {
      type: DT_BOOL
    }
  }
  attr {
    key: "_output_shapes"
    value {
      list {
        shape {
        }
        shape {
        }
      }
    }
  }
}
node {
  name: "global_step/cond/switch_t"
  op: "Identity"
  input: "global_step/cond/Switch:1"
  attr {
    key: "T"
    value {
      type: DT_BOOL
    }
  }
  attr {
    key: "_output_shapes"
    value {
      list {
        shape {
        }
      }
    }
  }
}
node {
  name: "global_step/cond/switch_f"
  op: "Identity"
  input: "global_step/cond/Switch"
  attr {
    key: "T"
    value {
      type: DT_BOOL
    }
  }
  attr {
    key: "_output_shapes"
    value {
      list {
        shape {
        }
      }
    }
  }
}
node {
  name: "global_step/cond/pred_id"
  op: "Identity"
  input: "global_step/IsVariableInitialized"
  attr {
    key: "T"
    value {
      type: DT_BOOL
    }
  }
  attr {
    key: "_output_shapes"
    value {
      list {
        shape {
        }
      }
    }
  }
}
node {
  name: "global_step/cond/read"
  op: "Identity"
  input: "global_step/cond/read/Switch:1"
  attr {
    key: "T"
    value {
      type: DT_INT64
    }
  }
  attr {
    key: "_output_shapes"
    value {
      list {
        shape {
        }
      }
    }
  }
}
node {
  name: "global_step/cond/read/Switch"
  op: "RefSwitch"
  input: "global_step"
  input: "global_step/cond/pred_id"
  attr {
    key: "T"
    value {
      type: DT_INT64
    }
  }
  attr {
    key: "_class"
    value {
      list {
        s: "loc:@global_step"
      }
    }
  }
  attr {
    key: "_output_shapes"
    value {
      list {
        shape {
        }
        shape {
        }
      }
    }
  }
}
node {
  name: "global_step/cond/Switch_1"
  op: "Switch"
  input: "global_step/Initializer/zeros"
  input: "global_step/cond/pred_id"
  attr {
    key: "T"
    value {
      type: DT_INT64
    }
  }
  attr {
    key: "_class"
    value {
      list {
        s: "loc:@global_step"
      }
    }
  }
  attr {
    key: "_output_shapes"
    value {
      list {
        shape {
        }
        shape {
        }
      }
    }
  }
}
node {
  name: "global_step/cond/Merge"
  op: "Merge"
  input: "global_step/cond/Switch_1"
  input: "global_step/cond/read"
  attr {
    key: "N"
    value {
      i: 2
    }
  }
  attr {
    key: "T"
    value {
      type: DT_INT64
    }
  }
  attr {
    key: "_output_shapes"
    value {
      list {
        shape {
        }
        shape {
        }
      }
    }
  }
}
node {
  name: "global_step/add/y"
  op: "Const"
  attr {
    key: "_output_shapes"
    value {
      list {
        shape {
        }
      }
    }
  }
  attr {
    key: "dtype"
    value {
      type: DT_INT64
    }
  }
  attr {
    key: "value"
    value {
      tensor {
        dtype: DT_INT64
        tensor_shape {
        }
        int64_val: 0
      }
    }
  }
}
node {
  name: "global_step/add"
  op: "Add"
  input: "global_step/cond/Merge"
  input: "global_step/add/y"
  attr {
    key: "T"
    value {
      type: DT_INT64
    }
  }
  attr {
    key: "_output_shapes"
    value {
      list {
        shape {
        }
      }
    }
  }
}
node {
  name: "tensors/component_0"
  op: "Const"
  device: "/device:CPU:0"
  attr {
    key: "_output_shapes"
    value {
      list {
        shape {
          dim {
            size: 5400
          }
        }
      }
    }
  }
  attr {
    key: "dtype"
    value {
      type: DT_INT64
    }
  }
  attr {
    key: "value"
    value {
      tensor {
        dtype: DT_INT64
        tensor_shape {
          dim {
            size: 5400
          }
        }
        tensor_content: "\000\000\000\000\000\000\000\000\000\000\000\000\000\000\000\000\001\000\000\000\000\000\000\000\001\000\000\000\000\000\000\000\002\000\000\000\000\000\000\000\002\000\000\000\000\000\000\000\003\000\000\000\000\000\000\000\003\000\000\000\000\000\000\000\004\000\000\000\000\000\000\000\004\000\000\000\000\000\000\000\005\000\000\000\000\000\000\000\005\000\000\000\000\000\000\000\006\000\000\000\000\000\000\000\006\000\000\000\000\000\000\000\007\000\000\000\000\000\000\000\007\000\000\000\000\000\000\000\010\000\000\000\000\000\000\000\010\000\000\000\000\000\000\000\t\000\000\000\000\000\000\000\t\000\000\000\000\000\000\000\n\000\000\000\000\000\000\000\n\000\000\000\000\000\000\000\013\000\000\000\000\000\000\000\013\000\000\000\000\000\000\000\014\000\000\000\000\000\000\000\014\000\000\000\000\000\000\000\r\000\000\000\000\000\000\000\r\000\000\000\000\000\000\000\016\000\000\000\000\000\000\000\016\000\000\000\000\000\000\000\017\000\000\000\000\000\000\000\017\000\000\000\000\000\000\000\020\000\000\000\000\000\000\000\020\000\000\000\000\000\000\000\021\000\000\000\000\000\000\000\021\000\000\000\000\000\000\000\022\000\000\000\000\000\000\000\022\000\000\000\000\000\000\000\023\000\000\000\000\000\000\000\023\000\000\000\000\000\000\000\024\000\000\000\000\000\000\000\024\000\000\000\000\000\000\000\025\000\000\000\000\000\000\000\025\000\000\000\000\000\000\000\026\000\000\000\000\000\000\000\026\000\000\000\000\000\000\000\027\000\000\000\000\000\000\000\027\000\000\000\000\000\000\000\030\000\000\000\000\000\000\000\030\000\000\000\000\000\000\000\031\000\000\000\000\000\000\000\031\000\000\000\000\000\000\000\032\000\000\000\000\000\000\000\032\000\000\000\000\000\000\000\033\000\000\000\000\000\000\000\033\000\000\000\000\000\000\000\034\000\000\000\000\000\000\000\034\000\000\000\000\000\000\000\035\000\000\000\000\000\000\000\035\000\000\000\000\000\000\000\036\000\000\000\000\000\000\000\036\000\000\000\000\000\000\000\037\000\000\000\000\000\000\000\037\000\000\000\000\000\000\000 \000\000\000\000\000\000\000 \000\000\000\000\000\000\000!\000\000\000\000\000\000\000!\000\000\000\000\000\000\000\"\000\000\000\000\000\000\000\"\000\000\000\000\000\000\000#\000\000\000\000\000\000\000#\000\000\000\000\000\000\000$\000\000\000\000\000\000\000$\000\000\000\000\000\000\000%\000\000\000\000\000\000\000%\000\000\000\000\000\000\000&\000\000\000\000\000\000\000&\000\000\000\000\000\000\000\'\000\000\000\000\000\000\000\'\000\000\000\000\000\000\000(\000\000\000\000\000\000\000(\000\000\000\000\000\000\000)\000\000\000\000\000\000\000)\000\000\000\000\000\000\000*\000\000\000\000\000\000\000*\000\000\000\000\000\000\000+\000\000\000\000\000\000\000+\000\000\000\000\000\000\000,\000\000\000\000\000\000\000,\000\000\000\000\000\000\000-\000\000\000\000\000\000\000-\000\000\000\000\000\000\000.\000\000\000\000\000\000\000.\000\000\000\000\000\000\000/\000\000\000\000\000\000\000/\000\000\000\000\000\000\0000\000\000\000\000\000\000\0000\000\000\000\000\000\000\0001\000\000\000\000\000\000\0001\000\000\000\000\000\000\0002\000\000\000\000\000\000\0002\000\000\000\000\000\000\0003\000\000\000\000\000\000\0003\000\000\000\000\000\000\0004\000\000\000\000\000\000\0004\000\000\000\000\000\000\0005\000\000\000\000\000\000\0005\000\000\000\000\000\000\0006\000\000\000\000\000\000\0006\000\000\000\000\000\000\0007\000\000\000\000\000\000\0007\000\000\000\000\000\000\0008\000\000\000\000\000\000\0008\000\000\000\000\000\000\0009\000\000\000\000\000\000\0009\000\000\000\000\000\000\000:\000\000\000\000\000\000\000:\000\000\000\000\000\000\000;\000\000\000\000\000\000\000;\000\000\000\000\000\000\000<\000\000\000\000\000\000\000<\000\000\000\000\000\000\000=\000\000\000\000\000\000\000=\000\000\000\000\000\000\000>\000\000\000\000\000\000\000>\000\000\000\000\000\000\000?\000\000\000\000\000\000\000?\000\000\000\000\000\000\000@\000\000\000\000\000\000\000@\000\000\000\000\000\000\000A\000\000\000\000\000\000\000A\000\000\000\000\000\000\000B\000\000\000\000\000\000\000B\000\000\000\000\000\000\000C\000\000\000\000\000\000\000C\000\000\000\000\000\000\000D\000\000\000\000\000\000\000D\000\000\000\000\000\000\000E\000\000\000\000\000\000\000E\000\000\000\000\000\000\000F\000\000\000\000\000\000\000F\000\000\000\000\000\000\000G\000\000\000\000\000\000\000G\000\000\000\000\000\000\000H\000\000\000\000\000\000\000H\000\000\000\000\000\000\000I\000\000\000\000\000\000\000I\000\000\000\000\000\000\000J\000\000\000\000\000\000\000J\000\000\000\000\000\000\000K\000\000\000\000\000\000\000K\000\000\000\000\000\000\000L\000\000\000\000\000\000\000L\000\000\000\000\000\000\000M\000\000\000\000\000\000\000M\000\000\000\000\000\000\000N\000\000\000\000\000\000\000N\000\000\000\000\000\000\000O\000\000\000\000\000\000\000O\000\000\000\000\000\000\000P\000\000\000\000\000\000\000P\000\000\000\000\000\000\000Q\000\000\000\000\000\000\000Q\000\000\000\000\000\000\000R\000\000\000\000\000\000\000R\000\000\000\000\000\000\000S\000\000\000\000\000\000\000S\000\000\000\000\000\000\000T\000\000\000\000\000\000\000T\000\000\000\000\000\000\000U\000\000\000\000\000\000\000U\000\000\000\000\000\000\000V\000\000\000\000\000\000\000V\000\000\000\000\000\000\000W\000\000\000\000\000\000\000W\000\000\000\000\000\000\000X\000\000\000\000\000\000\000X\000\000\000\000\000\000\000Y\000\000\000\000\000\000\000Y\000\000\000\000\000\000\000Z\000\000\000\000\000\000\000Z\000\000\000\000\000\000\000[\000\000\000\000\000\000\000[\000\000\000\000\000\000\000\\\000\000\000\000\000\000\000\\\000\000\000\000\000\000\000]\000\000\000\000\000\000\000]\000\000\000\000\000\000\000^\000\000\000\000\000\000\000^\000\000\000\000\000\000\000_\000\000\000\000\000\000\000_\000\000\000\000\000\000\000`\000\000\000\000\000\000\000`\000\000\000\000\000\000\000a\000\000\000\000\000\000\000a\000\000\000\000\000\000\000b\000\000\000\000\000\000\000b\000\000\000\000\000\000\000c\000\000\000\000\000\000\000c\000\000\000\000\000\000\000d\000\000\000\000\000\000\000d\000\000\000\000\000\000\000e\000\000\000\000\000\000\000e\000\000\000\000\000\000\000f\000\000\000\000\000\000\000f\000\000\000\000\000\000\000g\000\000\000\000\000\000\000g\000\000\000\000\000\000\000h\000\000\000\000\000\000\000h\000\000\000\000\000\000\000i\000\000\000\000\000\000\000i\000\000\000\000\000\000\000j\000\000\000\000\000\000\000j\000\000\000\000\000\000\000k\000\000\000\000\000\000\000k\000\000\000\000\000\000\000l\000\000\000\000\000\000\000l\000\000\000\000\000\000\000m\000\000\000\000\000\000\000m\000\000\000\000\000\000\000n\000\000\000\000\000\000\000n\000\000\000\000\000\000\000o\000\000\000\000\000\000\000o\000\000\000\000\000\000\000p\000\000\000\000\000\000\000p\000\000\000\000\000\000\000q\000\000\000\000\000\000\000q\000\000\000\000\000\000\000r\000\000\000\000\000\000\000r\000\000\000\000\000\000\000s\000\000\000\000\000\000\000s\000\000\000\000\000\000\000t\000\000\000\000\000\000\000t\000\000\000\000\000\000\000u\000\000\000\000\000\000\000u\000\000\000\000\000\000\000v\000\000\000\000\000\000\000v\000\000\000\000\000\000\000w\000\000\000\000\000\000\000w\000\000\000\000\000\000\000x\000\000\000\000\000\000\000x\000\000\000\000\000\000\000y\000\000\000\000\000\000\000y\000\000\000\000\000\000\000z\000\000\000\000\000\000\000z\000\000\000\000\000\000\000{\000\000\000\000\000\000\000{\000\000\000\000\000\000\000|\000\000\000\000\000\000\000|\000\000\000\000\000\000\000}\000\000\000\000\000\000\000}\000\000\000\000\000\000\000~\000\000\000\000\000\000\000~\000\000\000\000\000\000\000\177\000\000\000\000\000\000\000\177\000\000\000\000\000\000\000\200\000\000\000\000\000\000\000\200\000\000\000\000\000\000\000\201\000\000\000\000\000\000\000\201\000\000\000\000\000\000\000\202\000\000\000\000\000\000\000\202\000\000\000\000\000\000\000\203\000\000\000\000\000\000\000\203\000\000\000\000\000\000\000\204\000\000\000\000\000\000\000\204\000\000\000\000\000\000\000\205\000\000\000\000\000\000\000\205\000\000\000\000\000\000\000\206\000\000\000\000\000\000\000\206\000\000\000\000\000\000\000\207\000\000\000\000\000\000\000\207\000\000\000\000\000\000\000\210\000\000\000\000\000\000\000\210\000\000\000\000\000\000\000\211\000\000\000\000\000\000\000\211\000\000\000\000\000\000\000\212\000\000\000\000\000\000\000\212\000\000\000\000\000\000\000\213\000\000\000\000\000\000\000\213\000\000\000\000\000\000\000\214\000\000\000\000\000\000\000\214\000\000\000\000\000\000\000\215\000\000\000\000\000\000\000\215\000\000\000\000\000\000\000\216\000\000\000\000\000\000\000\216\000\000\000\000\000\000\000\217\000\000\000\000\000\000\000\217\000\000\000\000\000\000\000\220\000\000\000\000\000\000\000\220\000\000\000\000\000\000\000\221\000\000\000\000\000\000\000\221\000\000\000\000\000\000\000\222\000\000\000\000\000\000\000\222\000\000\000\000\000\000\000\223\000\000\000\000\000\000\000\223\000\000\000\000\000\000\000\224\000\000\000\000\000\000\000\224\000\000\000\000\000\000\000\225\000\000\000\000\000\000\000\225\000\000\000\000\000\000\000\226\000\000\000\000\000\000\000\226\000\000\000\000\000\000\000\227\000\000\000\000\000\000\000\227\000\000\000\000\000\000\000\230\000\000\000\000\000\000\000\230\000\000\000\000\000\000\000\231\000\000\000\000\000\000\000\231\000\000\000\000\000\000\000\232\000\000\000\000\000\000\000\232\000\000\000\000\000\000\000\233\000\000\000\000\000\000\000\233\000\000\000\000\000\000\000\234\000\000\000\000\000\000\000\234\000\000\000\000\000\000\000\235\000\000\000\000\000\000\000\235\000\000\000\000\000\000\000\236\000\000\000\000\000\000\000\236\000\000\000\000\000\000\000\237\000\000\000\000\000\000\000\237\000\000\000\000\000\000\000\240\000\000\000\000\000\000\000\240\000\000\000\000\000\000\000\241\000\000\000\000\000\000\000\241\000\000\000\000\000\000\000\242\000\000\000\000\000\000\000\242\000\000\000\000\000\000\000\243\000\000\000\000\000\000\000\243\000\000\000\000\000\000\000\244\000\000\000\000\000\000\000\244\000\000\000\000\000\000\000\245\000\000\000\000\000\000\000\245\000\000\000\000\000\000\000\246\000\000\000\000\000\000\000\246\000\000\000\000\000\000\000\247\000\000\000\000\000\000\000\247\000\000\000\000\000\000\000\250\000\000\000\000\000\000\000\250\000\000\000\000\000\000\000\251\000\000\000\000\000\000\000\251\000\000\000\000\000\000\000\252\000\000\000\000\000\000\000\252\000\000\000\000\000\000\000\253\000\000\000\000\000\000\000\253\000\000\000\000\000\000\000\254\000\000\000\000\000\000\000\254\000\000\000\000\000\000\000\255\000\000\000\000\000\000\000\255\000\000\000\000\000\000\000\256\000\000\000\000\000\000\000\256\000\000\000\000\000\000\000\257\000\000\000\000\000\000\000\257\000\000\000\000\000\000\000\260\000\000\000\000\000\000\000\260\000\000\000\000\000\000\000\261\000\000\000\000\000\000\000\261\000\000\000\000\000\000\000\262\000\000\000\000\000\000\000\262\000\000\000\000\000\000\000\263\000\000\000\000\000\000\000\263\000\000\000\000\000\000\000\264\000\000\000\000\000\000\000\264\000\000\000\000\000\000\000\265\000\000\000\000\000\000\000\265\000\000\000\000\000\000\000\266\000\000\000\000\000\000\000\266\000\000\000\000\000\000\000\267\000\000\000\000\000\000\000\267\000\000\000\000\000\000\000\270\000\000\000\000\000\000\000\270\000\000\000\000\000\000\000\271\000\000\000\000\000\000\000\271\000\000\000\000\000\000\000\272\000\000\000\000\000\000\000\272\000\000\000\000\000\000\000\273\000\000\000\000\000\000\000\273\000\000\000\000\000\000\000\274\000\000\000\000\000\000\000\274\000\000\000\000\000\000\000\275\000\000\000\000\000\000\000\275\000\000\000\000\000\000\000\276\000\000\000\000\000\000\000\276\000\000\000\000\000\000\000\277\000\000\000\000\000\000\000\277\000\000\000\000\000\000\000\300\000\000\000\000\000\000\000\300\000\000\000\000\000\000\000\301\000\000\000\000\000\000\000\301\000\000\000\000\000\000\000\302\000\000\000\000\000\000\000\302\000\000\000\000\000\000\000\303\000\000\000\000\000\000\000\303\000\000\000\000\000\000\000\304\000\000\000\000\000\000\000\304\000\000\000\000\000\000\000\305\000\000\000\000\000\000\000\305\000\000\000\000\000\000\000\306\000\000\000\000\000\000\000\306\000\000\000\000\000\000\000\307\000\000\000\000\000\000\000\307\000\000\000\000\000\000\000\356,\000\000\000\000\000\000\021\023\000\000\000\000\000\000\2004\000\000\000\000\000\000\273\034\000\000\000\000\000\000w\"\000\000\000\000\000\000;.\000\000\000\000\000\000b.\000\000\000\000\000\000\323\023\000\000\000\000\000\000\303\000\000\000\000\000\000\000o\n\000\000\000\000\000\000\3407\000\000\000\000\000\000U\033\000\000\000\000\000\000\2515\000\000\000\000\000\000\270\007\000\000\000\000\000\000\335.\000\000\000\000\000\000V\027\000\000\000\000\000\000\r\031\000\000\000\000\000\000\275\002\000\000\000\000\000\000\326$\000\000\000\000\000\000\n/\000\000\000\000\000\000>:\000\000\000\000\000\000\2070\000\000\000\000\000\000\0144\000\000\000\000\000\000\\*\000\000\000\000\000\000`\032\000\000\000\000\000\000\256\r\000\000\000\000\000\000\375\'\000\000\000\000\000\000\362\024\000\000\000\000\000\000I\004\000\000\000\000\000\000\013\006\000\000\000\000\000\000\361\017\000\000\000\000\000\000\271#\000\000\000\000\000\000\"\n\000\000\000\000\000\000\367.\000\000\000\000\000\000\3159\000\000\000\000\000\000\202\014\000\000\000\000\000\000[\023\000\000\000\000\000\000p\025\000\000\000\000\000\000E\022\000\000\000\000\000\000\211\006\000\000\000\000\000\000\202\023\000\000\000\000\000\000\313\006\000\000\000\000\000\0000\031\000\000\000\000\000\000\312\"\000\000\000\000\000\000\2236\000\000\000\000\000\000\230\002\000\000\000\000\000\000\377\021\000\000\000\000\000\000\034\002\000\000\000\000\000\000\037*\000\000\000\000\000\000X\004\000\000\000\000\000\000\376\'\000\000\000\000\000\000\346\t\000\000\000\000\000\000\2514\000\000\000\000\000\000i\n\000\000\000\000\000\000z%\000\000\000\000\000\000o\022\000\000\000\000\000\000d\001\000\000\000\000\000\000\376\034\000\000\000\000\000\000L\016\000\000\000\000\000\000|\003\000\000\000\000\000\000\343\030\000\000\000\000\000\000\311\030\000\000\000\000\000\000\022\"\000\000\000\000\000\000V/\000\000\000\000\000\000\341,\000\000\000\000\000\000l \000\000\000\000\000\000\315\024\000\000\000\000\000\000\206\020\000\000\000\000\000\000D\026\000\000\000\000\000\000\243-\000\000\000\000\000\000\026\017\000\000\000\000\000\000,3\000\000\000\000\000\000H\034\000\000\000\000\000\000\356-\000\000\000\000\000\000\371$\000\000\000\000\000\000\214 \000\000\000\000\000\000\0239\000\000\000\000\000\000?\010\000\000\000\000\000\000\2404\000\000\000\000\000\000\223#\000\000\000\000\000\000\231\034\000\000\000\000\000\000n7\000\000\000\000\000\000\305\032\000\000\000\000\000\000\332(\000\000\000\000\000\000\223\025\000\000\000\000\000\000\363\013\000\000\000\000\000\000W\025\000\000\000\000\000\000\323/\000\000\000\000\000\000\235\023\000\000\000\000\000\000\355+\000\000\000\000\000\000\007\022\000\000\000\000\000\000!\r\000\000\000\000\000\000\014\016\000\000\000\000\000\000f+\000\000\000\000\000\000n*\000\000\000\000\000\000E\005\000\000\000\000\000\000\377#\000\000\000\000\000\000\240\021\000\000\000\000\000\000\'%\000\000\000\000\000\000\017:\000\000\000\000\000\000\330\006\000\000\000\000\000\000\023,\000\000\000\000\000\000n)\000\000\000\000\000\000z\017\000\000\000\000\000\000\2419\000\000\000\000\000\000_\'\000\000\000\000\000\000\020\031\000\000\000\000\000\000\336,\000\000\000\000\000\000w\005\000\000\000\000\000\000\001\032\000\000\000\000\000\000\220,\000\000\000\000\000\000\3511\000\000\000\000\000\000\355\030\000\000\000\000\000\000\243\006\000\000\000\000\000\000=8\000\000\000\000\000\000\0005\000\000\000\000\000\000\2045\000\000\000\000\000\000N\002\000\000\000\000\000\000$\026\000\000\000\000\000\000n\005\000\000\000\000\000\000\330\032\000\000\000\000\000\000\357\030\000\000\000\000\000\000G\002\000\000\000\000\000\000j\003\000\000\000\000\000\000\254 \000\000\000\000\000\000\342!\000\000\000\000\000\0006\030\000\000\000\000\000\000\365\014\000\000\000\000\000\000#\026\000\000\000\000\000\000\357\035\000\000\000\000\000\000\2203\000\000\000\000\000\000\020(\000\000\000\000\000\000\001/\000\000\000\000\000\000\267\034\000\000\000\000\000\000!,\000\000\000\000\000\000\3550\000\000\000\000\000\000\003\024\000\000\000\000\000\000\220.\000\000\000\000\000\000\n\'\000\000\000\000\000\000r\003\000\000\000\000\000\000\3730\000\000\000\000\000\000\200\033\000\000\000\000\000\000\t\001\000\000\000\000\000\000>\003\000\000\000\000\000\000\0338\000\000\000\000\000\000S\005\000\000\000\000\000\000\216 \000\000\000\000\000\000:+\000\000\000\000\000\000d0\000\000\000\000\000\000F:\000\000\000\000\000\000Q\t\000\000\000\000\000\000\215\026\000\000\000\000\000\000\353*\000\000\000\000\000\000)\007\000\000\000\000\000\000\367\034\000\000\000\000\000\000\302\'\000\000\000\000\000\000\2356\000\000\000\000\000\000\303)\000\000\000\000\000\000#$\000\000\000\000\000\0005\020\000\000\000\000\000\000\332\"\000\000\000\000\000\000\2568\000\000\000\000\000\0008/\000\000\000\000\000\000\2109\000\000\000\000\000\000\245,\000\000\000\000\000\000$/\000\000\000\000\000\000\322\033\000\000\000\000\000\000n0\000\000\000\000\000\000`.\000\000\000\000\000\000q\'\000\000\000\000\000\0006\006\000\000\000\000\000\000\321\036\000\000\000\000\000\000\356$\000\000\000\000\000\000\217!\000\000\000\000\000\000\333\023\000\000\000\000\000\000C\026\000\000\000\000\000\000\204\025\000\000\000\000\000\000\324\033\000\000\000\000\000\000\210\001\000\000\000\000\000\000k\023\000\000\000\000\000\000\223$\000\000\000\000\000\000\314\037\000\000\000\000\000\000\3673\000\000\000\000\000\000\261\035\000\000\000\000\000\000\304\031\000\000\000\000\000\000\353\000\000\000\000\000\000\000I\003\000\000\000\000\000\000\3175\000\000\000\000\000\000m\007\000\000\000\000\000\000\253\031\000\000\000\000\000\000\217\'\000\000\000\000\000\000+\t\000\000\000\000\000\000%/\000\000\000\000\000\000`\023\000\000\000\000\000\000F\033\000\000\000\000\000\000\272\r\000\000\000\000\000\000\2248\000\000\000\000\000\000\262\023\000\000\000\000\000\000\360*\000\000\000\000\000\000\267\025\000\000\000\000\000\000\271\023\000\000\000\000\000\000;8\000\000\000\000\000\000\327\036\000\000\000\000\000\000\276\000\000\000\000\000\000\000\265\035\000\000\000\000\000\000\266\025\000\000\000\000\000\000K\002\000\000\000\000\000\000\016\036\000\000\000\000\000\000\2037\000\000\000\000\000\000\340\036\000\000\000\000\000\000w\014\000\000\000\000\000\000\320\024\000\000\000\000\000\000r\027\000\000\000\000\000\000\250#\000\000\000\000\000\000\236\016\000\000\000\000\000\000\250\027\000\000\000\000\000\000\267\031\000\000\000\000\000\000\021\010\000\000\000\000\000\000l2\000\000\000\000\000\000\220\014\000\000\000\000\000\000\200\006\000\000\000\000\000\000*\001\000\000\000\000\000\000\2604\000\000\000\000\000\000`\005\000\000\000\000\000\000\314\037\000\000\000\000\000\000G\000\000\000\000\000\000\000\335*\000\000\000\000\000\000\276-\000\000\000\000\000\000\2655\000\000\000\000\000\000\260!\000\000\000\000\000\000- \000\000\000\000\000\000I*\000\000\000\000\000\000\301%\000\000\000\000\000\000Q9\000\000\000\000\000\000\241\025\000\000\000\000\000\000\256\000\000\000\000\000\000\000\330\034\000\000\000\000\000\000F\033\000\000\000\000\000\000@!\000\000\000\000\000\0009\005\000\000\000\000\000\000\241\'\000\000\000\000\000\00071\000\000\000\000\000\0005\014\000\000\000\000\000\000\234\027\000\000\000\000\000\000\331\027\000\000\000\000\000\000q\027\000\000\000\000\000\000e\034\000\000\000\000\000\000\374/\000\000\000\000\000\000\222\014\000\000\000\000\000\000n\005\000\000\000\000\000\000\211\023\000\000\000\000\000\0006\003\000\000\000\000\000\000\363%\000\000\000\000\000\000r\t\000\000\000\000\000\000\036\t\000\000\000\000\000\000\247*\000\000\000\000\000\000\200\027\000\000\000\000\000\000\n\017\000\000\000\000\000\000\010\t\000\000\000\000\000\000D*\000\000\000\000\000\000\'\032\000\000\000\000\000\000k/\000\000\000\000\000\000\0308\000\000\000\000\000\000\263%\000\000\000\000\000\000\032\t\000\000\000\000\000\000\0259\000\000\000\000\000\000R\026\000\000\000\000\000\000\036\030\000\000\000\000\000\000G\031\000\000\000\000\000\000B\034\000\000\000\000\000\000\3459\000\000\000\000\000\000E\017\000\000\000\000\000\000N\034\000\000\000\000\000\000(7\000\000\000\000\000\000H8\000\000\000\000\000\000]3\000\000\000\000\000\000\264\004\000\000\000\000\000\00091\000\000\000\000\000\000r\017\000\000\000\000\000\000\225\036\000\000\000\000\000\000\314\010\000\000\000\000\000\000\033%\000\000\000\000\000\000\2266\000\000\000\000\000\000]\021\000\000\000\000\000\000L\005\000\000\000\000\000\000\177.\000\000\000\000\000\000\2225\000\000\000\000\000\000g\006\000\000\000\000\000\000R.\000\000\000\000\000\000~5\000\000\000\000\000\000\3011\000\000\000\000\000\000\304\002\000\000\000\000\000\000E\034\000\000\000\000\000\000\272\t\000\000\000\000\000\000\254.\000\000\000\000\000\000i\005\000\000\000\000\000\000~2\000\000\000\000\000\000v\032\000\000\000\000\000\000\261\007\000\000\000\000\000\000%\006\000\000\000\000\000\000\326$\000\000\000\000\000\000U\033\000\000\000\000\000\000\277\026\000\000\000\000\000\000\030:\000\000\000\000\000\000X\007\000\000\000\000\000\000\310 \000\000\000\000\000\000y&\000\000\000\000\000\000}\010\000\000\000\000\000\000N\004\000\000\000\000\000\0004\013\000\000\000\000\000\000\361\036\000\000\000\000\000\000\360\024\000\000\000\000\000\000\3470\000\000\000\000\000\000R\026\000\000\000\000\000\000[\026\000\000\000\000\000\000\177\"\000\000\000\000\000\000\317\026\000\000\000\000\000\000\223\'\000\000\000\000\000\000D\n\000\000\000\000\000\000\006\037\000\000\000\000\000\000U\034\000\000\000\000\000\000\307\022\000\000\000\000\000\000\371!\000\000\000\000\000\000\355\001\000\000\000\000\000\000\235\"\000\000\000\000\000\000\247,\000\000\000\000\000\000\006-\000\000\000\000\000\000\244\023\000\000\000\000\000\000o\005\000\000\000\000\000\000z\010\000\000\000\000\000\000*\032\000\000\000\000\000\000!\035\000\000\000\000\000\000t\033\000\000\000\000\000\000\201\016\000\000\000\000\000\0008\025\000\000\000\000\000\000j*\000\000\000\000\000\000\3042\000\000\000\000\000\000%0\000\000\000\000\000\000\027\014\000\000\000\000\000\000,*\000\000\000\000\000\0000\027\000\000\000\000\000\000\327-\000\000\000\000\000\000\341/\000\000\000\000\000\000\036%\000\000\000\000\000\000G\024\000\000\000\000\000\000@\026\000\000\000\000\000\000\331\021\000\000\000\000\000\0001\030\000\000\000\000\000\000\345\024\000\000\000\000\000\000\245\003\000\000\000\000\000\000\206\034\000\000\000\000\000\000$\007\000\000\000\000\000\000\314\013\000\000\000\000\000\000\310.\000\000\000\000\000\000\274\003\000\000\000\000\000\000\037\006\000\000\000\000\000\000\013\034\000\000\000\000\000\000\2262\000\000\000\000\000\000\232\037\000\000\000\000\000\000\0030\000\000\000\000\000\000\254.\000\000\000\000\000\000\277 \000\000\000\000\000\000\247%\000\000\000\000\000\00028\000\000\000\000\000\000g\n\000\000\000\000\000\000\354\002\000\000\000\000\000\000%:\000\000\000\000\000\000K\032\000\000\000\000\000\000,\032\000\000\000\000\000\000\305\r\000\000\000\000\000\000$*\000\000\000\000\000\000\304\000\000\000\000\000\000\000\335 \000\000\000\000\000\000|\036\000\000\000\000\000\000\377#\000\000\000\000\000\000\377\033\000\000\000\000\000\000++\000\000\000\000\000\000\217\014\000\000\000\000\000\000\225\t\000\000\000\000\000\000I\013\000\000\000\000\000\000]&\000\000\000\000\000\000R5\000\000\000\000\000\000\006\004\000\000\000\000\000\000+\t\000\000\000\000\000\000\2466\000\000\000\000\000\000-\027\000\000\000\000\000\0002\'\000\000\000\000\000\000\353\025\000\000\000\000\000\000\232\023\000\000\000\000\000\000\253\036\000\000\000\000\000\000g\027\000\000\000\000\000\000\3716\000\000\000\000\000\000\253\033\000\000\000\000\000\000\2227\000\000\000\000\000\000\304\020\000\000\000\000\000\000o\000\000\000\000\000\000\000\255\n\000\000\000\000\000\000\3354\000\000\000\000\000\000\3745\000\000\000\000\000\000}&\000\000\000\000\000\000`\'\000\000\000\000\000\000`\000\000\000\000\000\000\000<\n\000\000\000\000\000\000\363\013\000\000\000\000\000\000j\'\000\000\000\000\000\000\3770\000\000\000\000\000\000\211\000\000\000\000\000\000\000\207\010\000\000\000\000\000\000\020\027\000\000\000\000\000\000\232\'\000\000\000\000\000\0001\001\000\000\000\000\000\000\251\033\000\000\000\000\000\000\357\n\000\000\000\000\000\000\233\036\000\000\000\000\000\000\244,\000\000\000\000\000\000\'\003\000\000\000\000\000\000c\006\000\000\000\000\000\000\332*\000\000\000\000\000\000w2\000\000\000\000\000\000 \035\000\000\000\000\000\000Q\022\000\000\000\000\000\000\200\037\000\000\000\000\000\000\252#\000\000\000\000\000\000\310\033\000\000\000\000\000\000\226\037\000\000\000\000\000\000\2222\000\000\000\000\000\000($\000\000\000\000\000\000C\004\000\000\000\000\000\0001\020\000\000\000\000\000\000\037\032\000\000\000\000\000\000:\036\000\000\000\000\000\000\303\030\000\000\000\000\000\000$\001\000\000\000\000\000\000\230+\000\000\000\000\000\000\3754\000\000\000\000\000\000]9\000\000\000\000\000\000%2\000\000\000\000\000\000\226)\000\000\000\000\000\000\361\016\000\000\000\000\000\000P\'\000\000\000\000\000\000\271*\000\000\000\000\000\000\013\022\000\000\000\000\000\000\260%\000\000\000\000\000\000\211\003\000\000\000\000\000\000\203\010\000\000\000\000\000\000\225,\000\000\000\000\000\000\376(\000\000\000\000\000\000%\n\000\000\000\000\000\000\316+\000\000\000\000\000\000\271/\000\000\000\000\000\000/\024\000\000\000\000\000\000\244$\000\000\000\000\000\0004$\000\000\000\000\000\000\223\030\000\000\000\000\000\000y\006\000\000\000\000\000\000T(\000\000\000\000\000\000c\031\000\000\000\000\000\000\256,\000\000\000\000\000\000\271\033\000\000\000\000\000\000O\022\000\000\000\000\000\000\357\017\000\000\000\000\000\000P\006\000\000\000\000\000\000\217\001\000\000\000\000\000\000v$\000\000\000\000\000\000\2429\000\000\000\000\000\000k\r\000\000\000\000\000\000\334\016\000\000\000\000\000\000r\026\000\000\000\000\000\000z\000\000\000\000\000\000\000p3\000\000\000\000\000\000\334\034\000\000\000\000\000\000\376!\000\000\000\000\000\000/\022\000\000\000\000\000\000\205!\000\000\000\000\000\000\233.\000\000\000\000\000\000M\021\000\000\000\000\000\000c*\000\000\000\000\000\000\256+\000\000\000\000\000\000\3301\000\000\000\000\000\000!-\000\000\000\000\000\000\241/\000\000\000\000\000\000\2011\000\000\000\000\000\000P(\000\000\000\000\000\000L4\000\000\000\000\000\000p\013\000\000\000\000\000\000\2555\000\000\000\000\000\000\222\007\000\000\000\000\000\000\277\007\000\000\000\000\000\000\0332\000\000\000\000\000\000\373\027\000\000\000\000\000\000\0177\000\000\000\000\000\000.\037\000\000\000\000\000\000\025\036\000\000\000\000\000\000\355)\000\000\000\000\000\000m\r\000\000\000\000\000\000`0\000\000\000\000\000\000L-\000\000\000\000\000\000d\007\000\000\000\000\000\000i&\000\000\000\000\000\000\205\023\000\000\000\000\000\000d#\000\000\000\000\000\000F\t\000\000\000\000\000\0005,\000\000\000\000\000\000\3562\000\000\000\000\000\000d1\000\000\000\000\000\000\2158\000\000\000\000\000\000\007\024\000\000\000\000\000\000\311\007\000\000\000\000\000\000l\004\000\000\000\000\000\000V%\000\000\000\000\000\000\n8\000\000\000\000\000\000\360\026\000\000\000\000\000\000m\016\000\000\000\000\000\000\314\014\000\000\000\000\000\000\035\036\000\000\000\000\000\000\337 \000\000\000\000\000\000p\'\000\000\000\000\000\000\3172\000\000\000\000\000\00017\000\000\000\000\000\000n2\000\000\000\000\000\000\361\005\000\000\000\000\000\000\370\005\000\000\000\000\000\000l&\000\000\000\000\000\000\264\030\000\000\000\000\000\000^#\000\000\000\000\000\000\371\006\000\000\000\000\000\000\035\002\000\000\000\000\000\000\213\022\000\000\000\000\000\000o\031\000\000\000\000\000\000\331\n\000\000\000\000\000\000\230+\000\000\000\000\000\000\250\005\000\000\000\000\000\000\375\031\000\000\000\000\000\000e\014\000\000\000\000\000\000Q0\000\000\000\000\000\000\005\007\000\000\000\000\000\000\254,\000\000\000\000\000\000\224\r\000\000\000\000\000\000\247\r\000\000\000\000\000\000k.\000\000\000\000\000\000F\034\000\000\000\000\000\000(\016\000\000\000\000\000\00043\000\000\000\000\000\0004!\000\000\000\000\000\000\207$\000\000\000\000\000\000\036,\000\000\000\000\000\000\235\037\000\000\000\000\000\000\233\035\000\000\000\000\000\000\303\026\000\000\000\000\000\000\0329\000\000\000\000\000\000=\031\000\000\000\000\000\000 (\000\000\000\000\000\000\202\025\000\000\000\000\000\000L\016\000\000\000\000\000\000\307\025\000\000\000\000\000\000\335\034\000\000\000\000\000\000\347\022\000\000\000\000\000\000!\022\000\000\000\000\000\000\2557\000\000\000\000\000\000\312\005\000\000\000\000\000\000\203\017\000\000\000\000\000\000\004\037\000\000\000\000\000\000\361\005\000\000\000\000\000\000#\035\000\000\000\000\000\000\017!\000\000\000\000\000\000:\"\000\000\000\000\000\000\2419\000\000\000\000\000\000o-\000\000\000\000\000\000\022\010\000\000\000\000\000\000\030\000\000\000\000\000\000\000\005\017\000\000\000\000\000\000\243!\000\000\000\000\000\000H*\000\000\000\000\000\000\024:\000\000\000\000\000\000$.\000\000\000\000\000\000O4\000\000\000\000\000\000\3272\000\000\000\000\000\000`\027\000\000\000\000\000\000;\030\000\000\000\000\000\000/\014\000\000\000\000\000\000w3\000\000\000\000\000\000@\005\000\000\000\000\000\000\025.\000\000\000\000\000\000\3552\000\000\000\000\000\000\305\006\000\000\000\000\000\000=\027\000\000\000\000\000\000\324\r\000\000\000\000\000\000\322)\000\000\000\000\000\000\331/\000\000\000\000\000\000f\005\000\000\000\000\000\000\017+\000\000\000\000\000\000\356\037\000\000\000\000\000\000\217\026\000\000\000\000\000\000\3453\000\000\000\000\000\000\317\000\000\000\000\000\000\000\210:\000\000\000\000\000\000\354\022\000\000\000\000\000\0008*\000\000\000\000\000\000D\"\000\000\000\000\000\000\340\006\000\000\000\000\000\000\363.\000\000\000\000\000\000\030\017\000\000\000\000\000\000\271\032\000\000\000\000\000\000\313\007\000\000\000\000\000\000\013\014\000\000\000\000\000\000\013\001\000\000\000\000\000\000T\031\000\000\000\000\000\000\371/\000\000\000\000\000\000\032\035\000\000\000\000\000\000\314.\000\000\000\000\000\000D\t\000\000\000\000\000\000\260\"\000\000\000\000\000\000f\034\000\000\000\000\000\000T!\000\000\000\000\000\000!0\000\000\000\000\000\000c\003\000\000\000\000\000\000\0104\000\000\000\000\000\000\267&\000\000\000\000\000\000($\000\000\000\000\000\000Y9\000\000\000\000\000\000\354#\000\000\000\000\000\000/\006\000\000\000\000\000\0004\002\000\000\000\000\000\000\312*\000\000\000\000\000\000x\037\000\000\000\000\000\000G&\000\000\000\000\000\000\227$\000\000\000\000\000\000\033\037\000\000\000\000\000\000\001\026\000\000\000\000\000\000\010\021\000\000\000\000\000\000\275\t\000\000\000\000\000\000\346\n\000\000\000\000\000\000\001\007\000\000\000\000\000\000\3065\000\000\000\000\000\000d\000\000\000\000\000\000\000P\021\000\000\000\000\000\0003\006\000\000\000\000\000\000v7\000\000\000\000\000\000~\036\000\000\000\000\000\000\351\002\000\000\000\000\000\000i\017\000\000\000\000\000\000\303\025\000\000\000\000\000\000A6\000\000\000\000\000\000\303\000\000\000\000\000\000\000\352(\000\000\000\000\000\000\321\005\000\000\000\000\000\000P$\000\000\000\000\000\000>3\000\000\000\000\000\000\025\'\000\000\000\000\000\000\242%\000\000\000\000\000\000\"8\000\000\000\000\000\000S\017\000\000\000\000\000\000\017,\000\000\000\000\000\000E4\000\000\000\000\000\000(\027\000\000\000\000\000\000W\037\000\000\000\000\000\000\201)\000\000\000\000\000\000\3246\000\000\000\000\000\000\230\031\000\000\000\000\000\000\007,\000\000\000\000\000\000\240\035\000\000\000\000\000\000:\021\000\000\000\000\000\000\032\000\000\000\000\000\000\000!&\000\000\000\000\000\000S5\000\000\000\000\000\000V\002\000\000\000\000\000\000k5\000\000\000\000\000\000u\031\000\000\000\000\000\000a*\000\000\000\000\000\000\345\036\000\000\000\000\000\000\243\r\000\000\000\000\000\000\314&\000\000\000\000\000\000\3104\000\000\000\000\000\000\373\"\000\000\000\000\000\000\031:\000\000\000\000\000\000\312\017\000\000\000\000\000\000\017\037\000\000\000\000\000\000\3518\000\000\000\000\000\000\305\021\000\000\000\000\000\000\3438\000\000\000\000\000\000[\021\000\000\000\000\000\0001\036\000\000\000\000\000\000\253\024\000\000\000\000\000\000\203\025\000\000\000\000\000\000\003\030\000\000\000\000\000\000\342!\000\000\000\000\000\000\2439\000\000\000\000\000\000\206\024\000\000\000\000\000\000\316 \000\000\000\000\000\000\266-\000\000\000\000\000\000\271\010\000\000\000\000\000\000\255\031\000\000\000\000\000\000\221,\000\000\000\000\000\000//\000\000\000\000\000\000\251\007\000\000\000\000\000\000\262\017\000\000\000\000\000\000\027\r\000\000\000\000\000\000\242\006\000\000\000\000\000\000\263\033\000\000\000\000\000\0004\021\000\000\000\000\000\000\303/\000\000\000\000\000\000g:\000\000\000\000\000\000T:\000\000\000\000\000\000\010\n\000\000\000\000\000\000\3001\000\000\000\000\000\000\337\'\000\000\000\000\000\000\304\'\000\000\000\000\000\000<7\000\000\000\000\000\000\0046\000\000\000\000\000\000\031\034\000\000\000\000\000\000\277\"\000\000\000\000\000\000\205\006\000\000\000\000\000\000\372\026\000\000\000\000\000\000\307\027\000\000\000\000\000\000\006\030\000\000\000\000\000\000\336\n\000\000\000\000\000\000\362%\000\000\000\000\000\000M\014\000\000\000\000\000\000\307\000\000\000\000\000\000\000C!\000\000\000\000\000\000r\005\000\000\000\000\000\000\347\016\000\000\000\000\000\000}7\000\000\000\000\000\000\273\000\000\000\000\000\000\000I\001\000\000\000\000\000\000q,\000\000\000\000\000\000\235\036\000\000\000\000\000\000m3\000\000\000\000\000\000\352\"\000\000\000\000\000\000\253!\000\000\000\000\000\000p.\000\000\000\000\000\000.\037\000\000\000\000\000\000\321\034\000\000\000\000\000\000\355\002\000\000\000\000\000\000\331\r\000\000\000\000\000\000\010\037\000\000\000\000\000\000\330\n\000\000\000\000\000\000[\003\000\000\000\000\000\0001:\000\000\000\000\000\000|\031\000\000\000\000\000\000\221\001\000\000\000\000\000\000\227\036\000\000\000\000\000\000,(\000\000\000\000\000\000\242$\000\000\000\000\000\000|\t\000\000\000\000\000\000\241\013\000\000\000\000\000\000\343\036\000\000\000\000\000\000\362\022\000\000\000\000\000\000\322\001\000\000\000\000\000\000: \000\000\000\000\000\000l2\000\000\000\000\000\000\340\017\000\000\000\000\000\000@4\000\000\000\000\000\000\023\022\000\000\000\000\000\000m(\000\000\000\000\000\0009\002\000\000\000\000\000\000\214\n\000\000\000\000\000\000\3103\000\000\000\000\000\000,-\000\000\000\000\000\000\305\032\000\000\000\000\000\000@\021\000\000\000\000\000\000\252\016\000\000\000\000\000\000\2219\000\000\000\000\000\000\233\004\000\000\000\000\000\000J4\000\000\000\000\000\000\212.\000\000\000\000\000\000\332\005\000\000\000\000\000\000V$\000\000\000\000\000\000\310\001\000\000\000\000\000\000\246\025\000\000\000\000\000\000\261,\000\000\000\000\000\000r\035\000\000\000\000\000\000\3403\000\000\000\000\000\000\376\013\000\000\000\000\000\000\014\032\000\000\000\000\000\000\326\024\000\000\000\000\000\000\300\031\000\000\000\000\000\000B9\000\000\000\000\000\000\362\021\000\000\000\000\000\000\237$\000\000\000\000\000\000\232!\000\000\000\000\000\000\360\000\000\000\000\000\000\000\033\'\000\000\000\000\000\000\234\020\000\000\000\000\000\000\362\017\000\000\000\000\000\000\234!\000\000\000\000\000\000P#\000\000\000\000\000\000^\037\000\000\000\000\000\000\300\031\000\000\000\000\000\000\035\014\000\000\000\000\000\000\326\n\000\000\000\000\000\000\316\006\000\000\000\000\000\000K%\000\000\000\000\000\000\343\"\000\000\000\000\000\000\323\025\000\000\000\000\000\000j\n\000\000\000\000\000\000\270#\000\000\000\000\000\000i%\000\000\000\000\000\000\321*\000\000\000\000\000\000\0351\000\000\000\000\000\000W*\000\000\000\000\000\0008\026\000\000\000\000\000\000\031\007\000\000\000\000\000\000p6\000\000\000\000\000\000\223\002\000\000\000\000\000\000\207\001\000\000\000\000\000\000))\000\000\000\000\000\000\226\037\000\000\000\000\000\000\177+\000\000\000\000\000\000\342(\000\000\000\000\000\000f\036\000\000\000\000\000\000\032+\000\000\000\000\000\000S\033\000\000\000\000\000\000%\026\000\000\000\000\000\000\347\035\000\000\000\000\000\000{\031\000\000\000\000\000\000\372,\000\000\000\000\000\000_\013\000\000\000\000\000\000\221\016\000\000\000\000\000\000Z\035\000\000\000\000\000\000\211\023\000\000\000\000\000\000\254\030\000\000\000\000\000\000\362$\000\000\000\000\000\000\247\034\000\000\000\000\000\000\376,\000\000\000\000\000\000\223\001\000\000\000\000\000\000_!\000\000\000\000\000\000U6\000\000\000\000\000\000\341\002\000\000\000\000\000\000`\024\000\000\000\000\000\0008\030\000\000\000\000\000\000\210\n\000\000\000\000\000\000B\022\000\000\000\000\000\000}\030\000\000\000\000\000\0009\t\000\000\000\000\000\0008&\000\000\000\000\000\000\247$\000\000\000\000\000\000\t\021\000\000\000\000\000\000\321\034\000\000\000\000\000\000\374\022\000\000\000\000\000\000c\034\000\000\000\000\000\000\241\017\000\000\000\000\000\000\200\017\000\000\000\000\000\000\343\031\000\000\000\000\000\000\225\016\000\000\000\000\000\000/\"\000\000\000\000\000\000\006\033\000\000\000\000\000\000\374\n\000\000\000\000\000\000]\017\000\000\000\000\000\000\335%\000\000\000\000\000\000\014#\000\000\000\000\000\000\016,\000\000\000\000\000\000\250,\000\000\000\000\000\000\021\025\000\000\000\000\000\000b\003\000\000\000\000\000\0005\022\000\000\000\000\000\000G:\000\000\000\000\000\000\244\034\000\000\000\000\000\000\250\035\000\000\000\000\000\0009\030\000\000\000\000\000\000,)\000\000\000\000\000\000\264\003\000\000\000\000\000\000D.\000\000\000\000\000\000\0229\000\000\000\000\000\000\0160\000\000\000\000\000\000\010%\000\000\000\000\000\000\030\010\000\000\000\000\000\000R9\000\000\000\000\000\000\001\023\000\000\000\000\000\000\0361\000\000\000\000\000\000\n\r\000\000\000\000\000\0007\001\000\000\000\000\000\000r1\000\000\000\000\000\000\t\016\000\000\000\000\000\000\375\030\000\000\000\000\000\000Y4\000\000\000\000\000\000\261\030\000\000\000\000\000\000\310\005\000\000\000\000\000\000\314-\000\000\000\000\000\000\203%\000\000\000\000\000\000l3\000\000\000\000\000\000#\024\000\000\000\000\000\000\240\032\000\000\000\000\000\0007/\000\000\000\000\000\000\204\033\000\000\000\000\000\000f\004\000\000\000\000\000\000\224\n\000\000\000\000\000\000\214&\000\000\000\000\000\000\2531\000\000\000\000\000\000!\013\000\000\000\000\000\000S.\000\000\000\000\000\000\2057\000\000\000\000\000\000\300\026\000\000\000\000\000\000C-\000\000\000\000\000\000[\037\000\000\000\000\000\000\003\016\000\000\000\000\000\000\310#\000\000\000\000\000\000/\003\000\000\000\000\000\000\317-\000\000\000\000\000\000[ \000\000\000\000\000\000$\017\000\000\000\000\000\000^.\000\000\000\000\000\000\022\n\000\000\000\000\000\000\250,\000\000\000\000\000\000\0338\000\000\000\000\000\000\027\020\000\000\000\000\000\000\365%\000\000\000\000\000\000T \000\000\000\000\000\000\310\034\000\000\000\000\000\000\247\004\000\000\000\000\000\000\223\007\000\000\000\000\000\000L\003\000\000\000\000\000\000\3264\000\000\000\000\000\000Y\027\000\000\000\000\000\000\355\036\000\000\000\000\000\000\035\005\000\000\000\000\000\000\013\n\000\000\000\000\000\000\r\030\000\000\000\000\000\000\327\034\000\000\000\000\000\000\265\004\000\000\000\000\000\000\2060\000\000\000\000\000\000\200\t\000\000\000\000\000\000/\004\000\000\000\000\000\000+\005\000\000\000\000\000\000\367\005\000\000\000\000\000\000\367*\000\000\000\000\000\000\371\016\000\000\000\000\000\000p\024\000\000\000\000\000\000\000\003\000\000\000\000\000\000\232/\000\000\000\000\000\000\251\035\000\000\000\000\000\000(\002\000\000\000\000\000\000\n4\000\000\000\000\000\000\353\'\000\000\000\000\000\000}\036\000\000\000\000\000\000\271\016\000\000\000\000\000\000\320\022\000\000\000\000\000\000\367\000\000\000\000\000\000\000(\022\000\000\000\000\000\000\226\036\000\000\000\000\000\000\250\027\000\000\000\000\000\0008\000\000\000\000\000\000\0001\n\000\000\000\000\000\000\027!\000\000\000\000\000\000\223(\000\000\000\000\000\000,-\000\000\000\000\000\000[\020\000\000\000\000\000\000\252\007\000\000\000\000\000\000\022\"\000\000\000\000\000\000\201\035\000\000\000\000\000\000E\013\000\000\000\000\000\000\0040\000\000\000\000\000\000\221\020\000\000\000\000\000\000?\"\000\000\000\000\000\000b)\000\000\000\000\000\000\205 \000\000\000\000\000\000\034 \000\000\000\000\000\000\361\017\000\000\000\000\000\000\246$\000\000\000\000\000\000\002\016\000\000\000\000\000\000\341\000\000\000\000\000\000\000d*\000\000\000\000\000\000\027\020\000\000\000\000\000\000\315&\000\000\000\000\000\000\025\005\000\000\000\000\000\000\361\031\000\000\000\000\000\000\022\016\000\000\000\000\000\000$:\000\000\000\000\000\0005\037\000\000\000\000\000\000O\003\000\000\000\000\000\000L)\000\000\000\000\000\000\3577\000\000\000\000\000\0001/\000\000\000\000\000\000\2760\000\000\000\000\000\000\351,\000\000\000\000\000\000@\027\000\000\000\000\000\000\0377\000\000\000\000\000\000w,\000\000\000\000\000\000A&\000\000\000\000\000\000>\025\000\000\000\000\000\000\210\024\000\000\000\000\000\000\2261\000\000\000\000\000\000\003*\000\000\000\000\000\000(\002\000\000\000\000\000\000\324\027\000\000\000\000\000\000\375\014\000\000\000\000\000\0006*\000\000\000\000\000\000\302(\000\000\000\000\000\000\221 \000\000\000\000\000\000\2740\000\000\000\000\000\000&\007\000\000\000\000\000\000{9\000\000\000\000\000\000h\"\000\000\000\000\000\000\302\r\000\000\000\000\000\000\220\030\000\000\000\000\000\000\204\t\000\000\000\000\000\000\346\026\000\000\000\000\000\000q+\000\000\000\000\000\000\203\027\000\000\000\000\000\000`%\000\000\000\000\000\000\246\037\000\000\000\000\000\000\363(\000\000\000\000\000\000\3777\000\000\000\000\000\000\353\027\000\000\000\000\000\000\251\030\000\000\000\000\000\000\3064\000\000\000\000\000\000\251%\000\000\000\000\000\000K9\000\000\000\000\000\000\277(\000\000\000\000\000\000\360\027\000\000\000\000\000\000|\033\000\000\000\000\000\000v\031\000\000\000\000\000\000\221\002\000\000\000\000\000\000\321\013\000\000\000\000\000\000\222\034\000\000\000\000\000\000\357\007\000\000\000\000\000\000(#\000\000\000\000\000\000\357$\000\000\000\000\000\000\014%\000\000\000\000\000\000#%\000\000\000\000\000\000\372-\000\000\000\000\000\000x6\000\000\000\000\000\000\371\033\000\000\000\000\000\000v\031\000\000\000\000\000\000z\010\000\000\000\000\000\000a9\000\000\000\000\000\000\177%\000\000\000\000\000\000\213\014\000\000\000\000\000\000\2613\000\000\000\000\000\000\237\006\000\000\000\000\000\000\346\006\000\000\000\000\000\000\371\r\000\000\000\000\000\000\346\025\000\000\000\000\000\000\336\007\000\000\000\000\000\000*\023\000\000\000\000\000\000T*\000\000\000\000\000\000\211\020\000\000\000\000\000\000\335\016\000\000\000\000\000\000\343#\000\000\000\000\000\000\217\020\000\000\000\000\000\000r7\000\000\000\000\000\000\242\006\000\000\000\000\000\000\203\031\000\000\000\000\000\000)\035\000\000\000\000\000\000\234&\000\000\000\000\000\000\331\036\000\000\000\000\000\000\302#\000\000\000\000\000\000\204-\000\000\000\000\000\000\202+\000\000\000\000\000\000y\t\000\000\000\000\000\000\"\022\000\000\000\000\000\000\363\013\000\000\000\000\000\000N\031\000\000\000\000\000\000\371/\000\000\000\000\000\000\"#\000\000\000\000\000\000\001*\000\000\000\000\000\000\316\001\000\000\000\000\000\000a1\000\000\000\000\000\000>\023\000\000\000\000\000\000\255$\000\000\000\000\000\000\351.\000\000\000\000\000\000K\000\000\000\000\000\000\000\3361\000\000\000\000\000\000\014.\000\000\000\000\000\000\325\t\000\000\000\000\000\000\0369\000\000\000\000\000\000\214(\000\000\000\000\000\000\201\'\000\000\000\000\000\000\326\037\000\000\000\000\000\000\314\031\000\000\000\000\000\000\352\026\000\000\000\000\000\000&\004\000\000\000\000\000\000\022\025\000\000\000\000\000\000<\035\000\000\000\000\000\000Q\007\000\000\000\000\000\000\244!\000\000\000\000\000\000\2451\000\000\000\000\000\000N\031\000\000\000\000\000\000\201\022\000\000\000\000\000\000\247\030\000\000\000\000\000\000\367\033\000\000\000\000\000\000\352\013\000\000\000\000\000\000\n\010\000\000\000\000\000\000H\026\000\000\000\000\000\000\0066\000\000\000\000\000\000\304\n\000\000\000\000\000\000\340\024\000\000\000\000\000\000\025\031\000\000\000\000\000\000\0001\000\000\000\000\000\000\327*\000\000\000\000\000\000\317-\000\000\000\000\000\000o8\000\000\000\000\000\000\214\"\000\000\000\000\000\000x/\000\000\000\000\000\000\377$\000\000\000\000\000\000{\026\000\000\000\000\000\00066\000\000\000\000\000\000\030\007\000\000\000\000\000\000\3668\000\000\000\000\000\000\227)\000\000\000\000\000\0001\027\000\000\000\000\000\000\260.\000\000\000\000\000\000\265)\000\000\000\000\000\000L5\000\000\000\000\000\000\316\021\000\000\000\000\000\000A\021\000\000\000\000\000\000\205!\000\000\000\000\000\000.\007\000\000\000\000\000\000\204)\000\000\000\000\000\000\350,\000\000\000\000\000\000A&\000\000\000\000\000\000\3305\000\000\000\000\000\000\037\026\000\000\000\000\000\000\2740\000\000\000\000\000\000\331\014\000\000\000\000\000\000\271\010\000\000\000\000\000\000X\027\000\000\000\000\000\000\343(\000\000\000\000\000\000\371\013\000\000\000\000\000\000\320%\000\000\000\000\000\000\3258\000\000\000\000\000\000\225\033\000\000\000\000\000\0002\007\000\000\000\000\000\000:8\000\000\000\000\000\000\017\031\000\000\000\000\000\000\253\037\000\000\000\000\000\000\0347\000\000\000\000\000\000\214#\000\000\000\000\000\000/\014\000\000\000\000\000\000r/\000\000\000\000\000\000\2219\000\000\000\000\000\000\0369\000\000\000\000\000\000y2\000\000\000\000\000\000$.\000\000\000\000\000\000%\032\000\000\000\000\000\000\0144\000\000\000\000\000\000~8\000\000\000\000\000\000\3024\000\000\000\000\000\000X\020\000\000\000\000\000\000Q\037\000\000\000\000\000\000d\"\000\000\000\000\000\000K\027\000\000\000\000\000\000g+\000\000\000\000\000\000\323\002\000\000\000\000\000\000\315 \000\000\000\000\000\000\240\024\000\000\000\000\000\000w\002\000\000\000\000\000\000A\024\000\000\000\000\000\000\236\023\000\000\000\000\000\000\266\034\000\000\000\000\000\000A\035\000\000\000\000\000\000\203\023\000\000\000\000\000\000]\017\000\000\000\000\000\000\004\005\000\000\000\000\000\000\360-\000\000\000\000\000\000\307*\000\000\000\000\000\000\256\020\000\000\000\000\000\000\257\037\000\000\000\000\000\000&)\000\000\000\000\000\000V\002\000\000\000\000\000\000U\r\000\000\000\000\000\000\004)\000\000\000\000\000\000\246\016\000\000\000\000\000\000d-\000\000\000\000\000\000*\006\000\000\000\000\000\000\343%\000\000\000\000\000\000\2307\000\000\000\000\000\000\366)\000\000\000\000\000\000\023*\000\000\000\000\000\000\320\013\000\000\000\000\000\000\374#\000\000\000\000\000\000\020\034\000\000\000\000\000\000\340\"\000\000\000\000\000\000R4\000\000\000\000\000\000\2149\000\000\000\000\000\000\342\034\000\000\000\000\000\000\r \000\000\000\000\000\000H!\000\000\000\000\000\000\2718\000\000\000\000\000\000\253\026\000\000\000\000\000\000.$\000\000\000\000\000\000U\013\000\000\000\000\000\000\351\036\000\000\000\000\000\000r\r\000\000\000\000\000\000f\020\000\000\000\000\000\000Y\t\000\000\000\000\000\000f2\000\000\000\000\000\000\334&\000\000\000\000\000\000\3301\000\000\000\000\000\000Y!\000\000\000\000\000\000_1\000\000\000\000\000\000i\026\000\000\000\000\000\000\350\021\000\000\000\000\000\0000\001\000\000\000\000\000\000\252,\000\000\000\000\000\000\366\"\000\000\000\000\000\000\2567\000\000\000\000\000\000k\023\000\000\000\000\000\0008\031\000\000\000\000\000\000\324$\000\000\000\000\000\000\265\'\000\000\000\000\000\000\235\025\000\000\000\000\000\000X\021\000\000\000\000\000\000\365\026\000\000\000\000\000\000\323\017\000\000\000\000\000\000\026\007\000\000\000\000\000\000\215\024\000\000\000\000\000\000=!\000\000\000\000\000\000]0\000\000\000\000\000\000\0176\000\000\000\000\000\000\367\010\000\000\000\000\000\000\352\004\000\000\000\000\000\000\331\020\000\000\000\000\000\000U\022\000\000\000\000\000\000A\n\000\000\000\000\000\000\007\r\000\000\000\000\000\000\336#\000\000\000\000\000\000@-\000\000\000\000\000\000/\006\000\000\000\000\000\000\t7\000\000\000\000\000\000>\033\000\000\000\000\000\000\342\n\000\000\000\000\000\000\267\033\000\000\000\000\000\000=\r\000\000\000\000\000\000\347 \000\000\000\000\000\000b\034\000\000\000\000\000\000\2057\000\000\000\000\000\000\013%\000\000\000\000\000\000\270\035\000\000\000\000\000\000\340\005\000\000\000\000\000\000 *\000\000\000\000\000\000\234\033\000\000\000\000\000\000\341\034\000\000\000\000\000\000\304\031\000\000\000\000\000\000\374\"\000\000\000\000\000\000[\031\000\000\000\000\000\000\3105\000\000\000\000\000\000\244.\000\000\000\000\000\000(3\000\000\000\000\000\000\364\033\000\000\000\000\000\000\002\005\000\000\000\000\000\000\342\r\000\000\000\000\000\000\275#\000\000\000\000\000\000\2755\000\000\000\000\000\000\362!\000\000\000\000\000\000{\000\000\000\000\000\000\000\344/\000\000\000\000\000\000\231\030\000\000\000\000\000\000,/\000\000\000\000\000\000\253\025\000\000\000\000\000\000\377\'\000\000\000\000\000\000\365\000\000\000\000\000\000\000\252\020\000\000\000\000\000\000W\025\000\000\000\000\000\000\213#\000\000\000\000\000\000\020\010\000\000\000\000\000\000\317\024\000\000\000\000\000\000\t/\000\000\000\000\000\000\341$\000\000\000\000\000\000\3036\000\000\000\000\000\000\323\021\000\000\000\000\000\000\236$\000\000\000\000\000\000\221\014\000\000\000\000\000\000G\030\000\000\000\000\000\000\3202\000\000\000\000\000\000\177#\000\000\000\000\000\000\213\r\000\000\000\000\000\000\316\033\000\000\000\000\000\000\343\n\000\000\000\000\000\000\266 \000\000\000\000\000\000x9\000\000\000\000\000\000O4\000\000\000\000\000\000|3\000\000\000\000\000\000\022*\000\000\000\000\000\000 \027\000\000\000\000\000\000L#\000\000\000\000\000\000a#\000\000\000\000\000\000\257+\000\000\000\000\000\000\344\'\000\000\000\000\000\000\n,\000\000\000\000\000\000\027\030\000\000\000\000\000\000?&\000\000\000\000\000\000\264\037\000\000\000\000\000\0006*\000\000\000\000\000\000:\r\000\000\000\000\000\000\274\001\000\000\000\000\000\000\225\022\000\000\000\000\000\000\350\025\000\000\000\000\000\000)\036\000\000\000\000\000\000\274\003\000\000\000\000\000\000\201\016\000\000\000\000\000\000a&\000\000\000\000\000\000\032#\000\000\000\000\000\000\026\031\000\000\000\000\000\000e$\000\000\000\000\000\000B,\000\000\000\000\000\000R0\000\000\000\000\000\000}+\000\000\000\000\000\0005\t\000\000\000\000\000\000_\024\000\000\000\000\000\000\264\003\000\000\000\000\000\000J/\000\000\000\000\000\000\2610\000\000\000\000\000\000\311\030\000\000\000\000\000\000\007\032\000\000\000\000\000\000\221\023\000\000\000\000\000\0000\013\000\000\000\000\000\000\177$\000\000\000\000\000\000\334\034\000\000\000\000\000\000\221,\000\000\000\000\000\000\3050\000\000\000\000\000\000\252+\000\000\000\000\000\000\363#\000\000\000\000\000\000j5\000\000\000\000\000\000\"1\000\000\000\000\000\000J\n\000\000\000\000\000\000\030!\000\000\000\000\000\000\213\020\000\000\000\000\000\000Q$\000\000\000\000\000\000]$\000\000\000\000\000\000\367\031\000\000\000\000\000\000^!\000\000\000\000\000\000\225\035\000\000\000\000\000\000l\017\000\000\000\000\000\000\2103\000\000\000\000\000\000\224\021\000\000\000\000\000\000\370\032\000\000\000\000\000\0002\031\000\000\000\000\000\000\361\034\000\000\000\000\000\000\2128\000\000\000\000\000\000O\005\000\000\000\000\000\000\202$\000\000\000\000\000\000$7\000\000\000\000\000\000\3213\000\000\000\000\000\000\202&\000\000\000\000\000\000\036+\000\000\000\000\000\000F-\000\000\000\000\000\000-%\000\000\000\000\000\000F\006\000\000\000\000\000\000s\001\000\000\000\000\000\000\317)\000\000\000\000\000\000\372\031\000\000\000\000\000\000\307/\000\000\000\000\000\000\326\026\000\000\000\000\000\000\3174\000\000\000\000\000\000j\026\000\000\000\000\000\000p\010\000\000\000\000\000\0006$\000\000\000\000\000\000\003)\000\000\000\000\000\000a4\000\000\000\000\000\000\270%\000\000\000\000\000\000\003\005\000\000\000\000\000\000\322)\000\000\000\000\000\000\231\017\000\000\000\000\000\000\304\023\000\000\000\000\000\000l#\000\000\000\000\000\000:\004\000\000\000\000\000\000-&\000\000\000\000\000\000\262%\000\000\000\000\000\000\271\023\000\000\000\000\000\000=*\000\000\000\000\000\000\331\027\000\000\000\000\000\000\300\'\000\000\000\000\000\000h1\000\000\000\000\000\000\312\026\000\000\000\000\000\000\035\016\000\000\000\000\000\000k\003\000\000\000\000\000\000\250\024\000\000\000\000\000\00069\000\000\000\000\000\0006\025\000\000\000\000\000\000\n\006\000\000\000\000\000\000\2149\000\000\000\000\000\000\305\002\000\000\000\000\000\000\376%\000\000\000\000\000\000\321\007\000\000\000\000\000\000\203\020\000\000\000\000\000\000\276\021\000\000\000\000\000\000\204\022\000\000\000\000\000\000\360\021\000\000\000\000\000\000\370\020\000\000\000\000\000\000\177!\000\000\000\000\000\000\025\020\000\000\000\000\000\000\300\035\000\000\000\000\000\0004*\000\000\000\000\000\000\030\"\000\000\000\000\000\000\211\035\000\000\000\000\000\000\0329\000\000\000\000\000\000p\014\000\000\000\000\000\000\321+\000\000\000\000\000\000\212\004\000\000\000\000\000\000F\035\000\000\000\000\000\000\324\022\000\000\000\000\000\000T\021\000\000\000\000\000\000\035\004\000\000\000\000\000\000N\025\000\000\000\000\000\000,\020\000\000\000\000\000\000}\017\000\000\000\000\000\000\334\r\000\000\000\000\000\000Y7\000\000\000\000\000\000\226\014\000\000\000\000\000\000\317/\000\000\000\000\000\0002\026\000\000\000\000\000\000\3406\000\000\000\000\000\000B\023\000\000\000\000\000\000\357/\000\000\000\000\000\000\345\037\000\000\000\000\000\000@(\000\000\000\000\000\000\3268\000\000\000\000\000\000$\032\000\000\000\000\000\000r\030\000\000\000\000\000\000N\"\000\000\000\000\000\000\205\023\000\000\000\000\000\000\2645\000\000\000\000\000\000\3552\000\000\000\000\000\000\n\016\000\000\000\000\000\000\321*\000\000\000\000\000\000\241*\000\000\000\000\000\000\331*\000\000\000\000\000\000\2778\000\000\000\000\000\000\347\007\000\000\000\000\000\000>\001\000\000\000\000\000\000N1\000\000\000\000\000\000\r1\000\000\000\000\000\000\372\r\000\000\000\000\000\000>\006\000\000\000\000\000\000\3263\000\000\000\000\000\000\316\037\000\000\000\000\000\000\335\024\000\000\000\000\000\000\006\017\000\000\000\000\000\000H\033\000\000\000\000\000\000\r\010\000\000\000\000\000\000\271\036\000\000\000\000\000\000\264\017\000\000\000\000\000\000\213\000\000\000\000\000\000\000\372,\000\000\000\000\000\000p\022\000\000\000\000\000\000\323\027\000\000\000\000\000\000\246\n\000\000\000\000\000\000O7\000\000\000\000\000\000y\027\000\000\000\000\000\000~4\000\000\000\000\000\000\3750\000\000\000\000\000\000\202\007\000\000\000\000\000\000w\024\000\000\000\000\000\000\342-\000\000\000\000\000\000}\010\000\000\000\000\000\000\006#\000\000\000\000\000\000\005\016\000\000\000\000\000\000H\020\000\000\000\000\000\000\0365\000\000\000\000\000\000@ \000\000\000\000\000\000\332\004\000\000\000\000\000\000\214+\000\000\000\000\000\000\260\013\000\000\000\000\000\000.,\000\000\000\000\000\000\226\025\000\000\000\000\000\000(\031\000\000\000\000\000\000?\n\000\000\000\000\000\000_\020\000\000\000\000\000\000Z\031\000\000\000\000\000\000.\013\000\000\000\000\000\000\274(\000\000\000\000\000\000\231#\000\000\000\000\000\000\364 \000\000\000\000\000\000\3017\000\000\000\000\000\000-\010\000\000\000\000\000\000P6\000\000\000\000\000\000\303\025\000\000\000\000\000\000\345\010\000\000\000\000\000\000\313\003\000\000\000\000\000\000\3040\000\000\000\000\000\000z-\000\000\000\000\000\000j3\000\000\000\000\000\000\315\026\000\000\000\000\000\000#4\000\000\000\000\000\0007)\000\000\000\000\000\000\216\020\000\000\000\000\000\000\336)\000\000\000\000\000\000J-\000\000\000\000\000\000S/\000\000\000\000\000\000\247\013\000\000\000\000\000\000;\013\000\000\000\000\000\000\035\030\000\000\000\000\000\000\373&\000\000\000\000\000\000\2642\000\000\000\000\000\000L\t\000\000\000\000\000\000\251\"\000\000\000\000\000\000\037\025\000\000\000\000\000\000\265\022\000\000\000\000\000\000}#\000\000\000\000\000\000\313\010\000\000\000\000\000\000\273#\000\000\000\000\000\000\362\034\000\000\000\000\000\0000\023\000\000\000\000\000\000\262\023\000\000\000\000\000\000\005#\000\000\000\000\000\000\211\006\000\000\000\000\000\000O1\000\000\000\000\000\000A1\000\000\000\000\000\000\032\016\000\000\000\000\000\000t*\000\000\000\000\000\000H7\000\000\000\000\000\000E\016\000\000\000\000\000\000E8\000\000\000\000\000\000\363+\000\000\000\000\000\000\200\"\000\000\000\000\000\000\366+\000\000\000\000\000\000\3637\000\000\000\000\000\000\344%\000\000\000\000\000\000\365(\000\000\000\000\000\000^\n\000\000\000\000\000\0005\006\000\000\000\000\000\000\004/\000\000\000\000\000\000\223\025\000\000\000\000\000\000v+\000\000\000\000\000\000\330\027\000\000\000\000\000\000\320\037\000\000\000\000\000\000\211&\000\000\000\000\000\000\005\'\000\000\000\000\000\000%\025\000\000\000\000\000\000-\026\000\000\000\000\000\000\004\021\000\000\000\000\000\000\265/\000\000\000\000\000\000\263+\000\000\000\000\000\000\n\007\000\000\000\000\000\000\252\n\000\000\000\000\000\000\317(\000\000\000\000\000\000\301\031\000\000\000\000\000\000T\016\000\000\000\000\000\000\2506\000\000\000\000\000\000]+\000\000\000\000\000\000\257\033\000\000\000\000\000\000\"+\000\000\000\000\000\000\326\037\000\000\000\000\000\000\037\"\000\000\000\000\000\000\245\017\000\000\000\000\000\000\020\021\000\000\000\000\000\000\t\"\000\000\000\000\000\000\3224\000\000\000\000\000\000}\002\000\000\000\000\000\000S\030\000\000\000\000\000\000\2479\000\000\000\000\000\000\264\034\000\000\000\000\000\000\3767\000\000\000\000\000\000\325\n\000\000\000\000\000\000\010\'\000\000\000\000\000\000\212\002\000\000\000\000\000\000c!\000\000\000\000\000\000/\001\000\000\000\000\000\000C\017\000\000\000\000\000\000\007\r\000\000\000\000\000\000\364\016\000\000\000\000\000\000\220\002\000\000\000\000\000\000\321%\000\000\000\000\000\000\017\016\000\000\000\000\000\000\3278\000\000\000\000\000\000\335\031\000\000\000\000\000\000\013$\000\000\000\000\000\0009\t\000\000\000\000\000\000 -\000\000\000\000\000\000\235\000\000\000\000\000\000\000\307\034\000\000\000\000\000\000f5\000\000\000\000\000\000o:\000\000\000\000\000\000\3212\000\000\000\000\000\000 \'\000\000\000\000\000\000\335\r\000\000\000\000\000\000=\020\000\000\000\000\000\000\354\022\000\000\000\000\000\000\274%\000\000\000\000\000\000\3340\000\000\000\000\000\000q\032\000\000\000\000\000\000\030\023\000\000\000\000\000\000=!\000\000\000\000\000\00060\000\000\000\000\000\000J\024\000\000\000\000\000\000U\026\000\000\000\000\000\000\261#\000\000\000\000\000\000\246\020\000\000\000\000\000\000\226\013\000\000\000\000\000\000\" \000\000\000\000\000\000\000)\000\000\000\000\000\000-+\000\000\000\000\000\000\247+\000\000\000\000\000\000\244\t\000\000\000\000\000\000\322\036\000\000\000\000\000\000K\035\000\000\000\000\000\000\325\014\000\000\000\000\000\000\257$\000\000\000\000\000\000\270\017\000\000\000\000\000\000u\025\000\000\000\000\000\000\006\024\000\000\000\000\000\000\2130\000\000\000\000\000\000v\020\000\000\000\000\000\000\227!\000\000\000\000\000\000M7\000\000\000\000\000\00042\000\000\000\000\000\000\230)\000\000\000\000\000\000\311\005\000\000\000\000\000\000r\'\000\000\000\000\000\000\006\"\000\000\000\000\000\000\035\n\000\000\000\000\000\000$\t\000\000\000\000\000\000\334\027\000\000\000\000\000\000#(\000\000\000\000\000\000\3157\000\000\000\000\000\000\331\013\000\000\000\000\000\000+:\000\000\000\000\000\000L9\000\000\000\000\000\000\204\033\000\000\000\000\000\000O\016\000\000\000\000\000\000\235\031\000\000\000\000\000\000\213(\000\000\000\000\000\000^#\000\000\000\000\000\000\333\035\000\000\000\000\000\000\0048\000\000\000\000\000\000\022\032\000\000\000\000\000\000\3207\000\000\000\000\000\000\325#\000\000\000\000\000\000\353\005\000\000\000\000\000\000d+\000\000\000\000\000\000_\025\000\000\000\000\000\000^\006\000\000\000\000\000\000%!\000\000\000\000\000\000u&\000\000\000\000\000\000\222\031\000\000\000\000\000\000\025\027\000\000\000\000\000\000\216\"\000\000\000\000\000\00001\000\000\000\000\000\000\275.\000\000\000\000\000\000X\020\000\000\000\000\000\000\221-\000\000\000\000\000\000n\002\000\000\000\000\000\000\322&\000\000\000\000\000\000\304\034\000\000\000\000\000\000\205-\000\000\000\000\000\000\2206\000\000\000\000\000\000\2640\000\000\000\000\000\000\310\023\000\000\000\000\000\000\307\004\000\000\000\000\000\000S\n\000\000\000\000\000\000\013\025\000\000\000\000\000\000s\024\000\000\000\000\000\000\373\024\000\000\000\000\000\000\233\037\000\000\000\000\000\000\0164\000\000\000\000\000\000D\020\000\000\000\000\000\000\320\037\000\000\000\000\000\000\377\007\000\000\000\000\000\000\214\003\000\000\000\000\000\000\301\027\000\000\000\000\000\0006-\000\000\000\000\000\000\257$\000\000\000\000\000\000\3103\000\000\000\000\000\000j&\000\000\000\000\000\000\230\022\000\000\000\000\000\000\230\t\000\000\000\000\000\000\332\033\000\000\000\000\000\000\014 \000\000\000\000\000\000\234\r\000\000\000\000\000\000g\023\000\000\000\000\000\000u\005\000\000\000\000\000\0006\035\000\000\000\000\000\000\341\036\000\000\000\000\000\000#0\000\000\000\000\000\000\336\022\000\000\000\000\000\000l\013\000\000\000\000\000\000\244/\000\000\000\000\000\000\035\034\000\000\000\000\000\000\353\035\000\000\000\000\000\000\3639\000\000\000\000\000\000\361\020\000\000\000\000\000\000\002\027\000\000\000\000\000\000\362\004\000\000\000\000\000\000;\026\000\000\000\000\000\000f#\000\000\000\000\000\000D4\000\000\000\000\000\000\037\'\000\000\000\000\000\000\207\025\000\000\000\000\000\000\010\025\000\000\000\000\000\000p \000\000\000\000\000\000\242 \000\000\000\000\000\000E\"\000\000\000\000\000\000\320!\000\000\000\000\000\000u\001\000\000\000\000\000\0003#\000\000\000\000\000\000\231\007\000\000\000\000\000\000c6\000\000\000\000\000\000\033\030\000\000\000\000\000\000\010\004\000\000\000\000\000\000F0\000\000\000\000\000\000U%\000\000\000\000\000\000\272\007\000\000\000\000\000\000\034\r\000\000\000\000\000\000\327\026\000\000\000\000\000\000\363\023\000\000\000\000\000\000\0264\000\000\000\000\000\000V\000\000\000\000\000\000\000.\007\000\000\000\000\000\000\2752\000\000\000\000\000\000\320\023\000\000\000\000\000\000D\010\000\000\000\000\000\000\372\003\000\000\000\000\000\000\333 \000\000\000\000\000\000\256#\000\000\000\000\000\000\021&\000\000\000\000\000\000\237\001\000\000\000\000\000\000\274\033\000\000\000\000\000\000\333\005\000\000\000\000\000\000\203\002\000\000\000\000\000\000\335+\000\000\000\000\000\000\246/\000\000\000\000\000\000) \000\000\000\000\000\000f\037\000\000\000\000\000\000\200%\000\000\000\000\000\000\231\027\000\000\000\000\000\000\227\"\000\000\000\000\000\000(\035\000\000\000\000\000\000\207:\000\000\000\000\000\000\036,\000\000\000\000\000\000\207\022\000\000\000\000\000\000\263\031\000\000\000\000\000\000\374%\000\000\000\000\000\000\274\000\000\000\000\000\000\000\234\034\000\000\000\000\000\000]$\000\000\000\000\000\000D)\000\000\000\000\000\000_\000\000\000\000\000\000\000\316)\000\000\000\000\000\000%\013\000\000\000\000\000\000~\r\000\000\000\000\000\0003)\000\000\000\000\000\000%\031\000\000\000\000\000\000\007\037\000\000\000\000\000\000\0226\000\000\000\000\000\000\274\034\000\000\000\000\000\000(\010\000\000\000\000\000\000\023\030\000\000\000\000\000\000\351\032\000\000\000\000\000\000\0373\000\000\000\000\000\000\330\031\000\000\000\000\000\000\365\020\000\000\000\000\000\000\3132\000\000\000\000\000\000\317\"\000\000\000\000\000\000@4\000\000\000\000\000\000#\021\000\000\000\000\000\000x\006\000\000\000\000\000\000n\n\000\000\000\000\000\000\236\001\000\000\000\000\000\000t\037\000\000\000\000\000\000\231\016\000\000\000\000\000\000\205\n\000\000\000\000\000\000H8\000\000\000\000\000\000\3145\000\000\000\000\000\000O \000\000\000\000\000\000M.\000\000\000\000\000\000\2627\000\000\000\000\000\0006\026\000\000\000\000\000\000\376\010\000\000\000\000\000\000\010\001\000\000\000\000\000\000\364\014\000\000\000\000\000\000;-\000\000\000\000\000\000#\"\000\000\000\000\000\000o2\000\000\000\000\000\000\206\t\000\000\000\000\000\000T6\000\000\000\000\000\000\225\020\000\000\000\000\000\000\301\013\000\000\000\000\000\000\351\007\000\000\000\000\000\000\307\026\000\000\000\000\000\000e$\000\000\000\000\000\000.\'\000\000\000\000\000\000\335+\000\000\000\000\000\000~\027\000\000\000\000\000\000) \000\000\000\000\000\000\177\014\000\000\000\000\000\000\323(\000\000\000\000\000\000\353\'\000\000\000\000\000\000<\037\000\000\000\000\000\000\267\027\000\000\000\000\000\000\021.\000\000\000\000\000\000\030\016\000\000\000\000\000\000k$\000\000\000\000\000\000\315!\000\000\000\000\000\000\235#\000\000\000\000\000\000\217:\000\000\000\000\000\000O\"\000\000\000\000\000\000\335\n\000\000\000\000\000\000 3\000\000\000\000\000\000\352\033\000\000\000\000\000\000\201!\000\000\000\000\000\0008\t\000\000\000\000\000\000@7\000\000\000\000\000\000\2654\000\000\000\000\000\000\264\020\000\000\000\000\000\000\375\n\000\000\000\000\000\000\205\031\000\000\000\000\000\000\2767\000\000\000\000\000\000\301 \000\000\000\000\000\000\277)\000\000\000\000\000\000*\017\000\000\000\000\000\000\3473\000\000\000\000\000\000\245\024\000\000\000\000\000\000\312\025\000\000\000\000\000\000t,\000\000\000\000\000\000\271\016\000\000\000\000\000\000\177\013\000\000\000\000\000\000Z!\000\000\000\000\000\000\023\025\000\000\000\000\000\000<\037\000\000\000\000\000\000$\037\000\000\000\000\000\000\346\n\000\000\000\000\000\000{%\000\000\000\000\000\000\221:\000\000\000\000\000\000q\036\000\000\000\000\000\000\334\'\000\000\000\000\000\000\020.\000\000\000\000\000\000\204\003\000\000\000\000\000\000s\023\000\000\000\000\000\000\014\r\000\000\000\000\000\000\220\'\000\000\000\000\000\000\3349\000\000\000\000\000\000\302\031\000\000\000\000\000\000I\001\000\000\000\000\000\000\265\031\000\000\000\000\000\000T\037\000\000\000\000\000\000n\r\000\000\000\000\000\000\256$\000\000\000\000\000\000\3175\000\000\000\000\000\000*\006\000\000\000\000\000\000\267\014\000\000\000\000\000\000\235\030\000\000\000\000\000\000Z:\000\000\000\000\000\000\233\026\000\000\000\000\000\000\335\033\000\000\000\000\000\000\343\034\000\000\000\000\000\000z+\000\000\000\000\000\000\367\002\000\000\000\000\000\000)1\000\000\000\000\000\000Y-\000\000\000\000\000\000~8\000\000\000\000\000\0006.\000\000\000\000\000\000\316\'\000\000\000\000\000\000\004\000\000\000\000\000\000\000\314\017\000\000\000\000\000\000\020\r\000\000\000\000\000\000\332&\000\000\000\000\000\000\014\006\000\000\000\000\000\000\303\037\000\000\000\000\000\000\345#\000\000\000\000\000\000\0271\000\000\000\000\000\000\227\006\000\000\000\000\000\000K7\000\000\000\000\000\000p\025\000\000\000\000\000\000F2\000\000\000\000\000\000\0036\000\000\000\000\000\000\340\034\000\000\000\000\000\000\320\"\000\000\000\000\000\000\022&\000\000\000\000\000\000\324\031\000\000\000\000\000\000\310#\000\000\000\000\000\000|\025\000\000\000\000\000\000R1\000\000\000\000\000\000\341\013\000\000\000\000\000\000u\005\000\000\000\000\000\000\322\026\000\000\000\000\000\000\302/\000\000\000\000\000\000\2771\000\000\000\000\000\000\367\r\000\000\000\000\000\000J\t\000\000\000\000\000\000\300\016\000\000\000\000\000\0003\r\000\000\000\000\000\000m7\000\000\000\000\000\000\234(\000\000\000\000\000\000\r/\000\000\000\000\000\000\014\010\000\000\000\000\000\000\254\027\000\000\000\000\000\000\214\025\000\000\000\000\000\000\303(\000\000\000\000\000\000A\027\000\000\000\000\000\000\035-\000\000\000\000\000\000\243)\000\000\000\000\000\000\274\034\000\000\000\000\000\000y*\000\000\000\000\000\000F\021\000\000\000\000\000\000Z\023\000\000\000\000\000\000\322\020\000\000\000\000\000\000\357\017\000\000\000\000\000\000\372\031\000\000\000\000\000\000+\024\000\000\000\000\000\000\000)\000\000\000\000\000\000\307\"\000\000\000\000\000\000\3407\000\000\000\000\000\000r&\000\000\000\000\000\000+:\000\000\000\000\000\000i/\000\000\000\000\000\000\2052\000\000\000\000\000\000\352,\000\000\000\000\000\000\255-\000\000\000\000\000\000\230\013\000\000\000\000\000\000\230\n\000\000\000\000\000\0001\006\000\000\000\000\000\000\363\002\000\000\000\000\000\000E+\000\000\000\000\000\000\225,\000\000\000\000\000\000|\021\000\000\000\000\000\000\2649\000\000\000\000\000\000P$\000\000\000\000\000\000\023\002\000\000\000\000\000\000\314$\000\000\000\000\000\000L\007\000\000\000\000\000\000\307\"\000\000\000\000\000\000\2336\000\000\000\000\000\000\2564\000\000\000\000\000\000\321\032\000\000\000\000\000\000>\034\000\000\000\000\000\000g,\000\000\000\000\000\000\\3\000\000\000\000\000\000\2737\000\000\000\000\000\000\3329\000\000\000\000\000\000\025*\000\000\000\000\000\000:-\000\000\000\000\000\000\310\030\000\000\000\000\000\000\246\001\000\000\000\000\000\000\\\'\000\000\000\000\000\000E-\000\000\000\000\000\000x-\000\000\000\000\000\000\215%\000\000\000\000\000\000\250\001\000\000\000\000\000\000S\r\000\000\000\000\000\000[\021\000\000\000\000\000\000\257&\000\000\000\000\000\000\237\001\000\000\000\000\000\000\034\032\000\000\000\000\000\000\372\t\000\000\000\000\000\000\347\020\000\000\000\000\000\000B\007\000\000\000\000\000\000\020#\000\000\000\000\000\000u/\000\000\000\000\000\000\226\"\000\000\000\000\000\000X8\000\000\000\000\000\000\030/\000\000\000\000\000\000\205\031\000\000\000\000\000\000\3028\000\000\000\000\000\0004(\000\000\000\000\000\000w\'\000\000\000\000\000\000\3524\000\000\000\000\000\000B\002\000\000\000\000\000\000\302\033\000\000\000\000\000\000\2269\000\000\000\000\000\000.\024\000\000\000\000\000\000\242)\000\000\000\000\000\000\354\027\000\000\000\000\000\000H3\000\000\000\000\000\000v\035\000\000\000\000\000\000\350\031\000\000\000\000\000\000\372\034\000\000\000\000\000\000\335\034\000\000\000\000\000\000\247\022\000\000\000\000\000\000h\030\000\000\000\000\000\000\224\004\000\000\000\000\000\000\027\037\000\000\000\000\000\000*/\000\000\000\000\000\000#&\000\000\000\000\000\000s\024\000\000\000\000\000\00007\000\000\000\000\000\000b!\000\000\000\000\000\000B3\000\000\000\000\000\000:\024\000\000\000\000\000\000\322\016\000\000\000\000\000\000A!\000\000\000\000\000\000\005\"\000\000\000\000\000\000\307\027\000\000\000\000\000\000\375\022\000\000\000\000\000\000\034\005\000\000\000\000\000\000\343\031\000\000\000\000\000\000+\020\000\000\000\000\000\000\'2\000\000\000\000\000\000>\016\000\000\000\000\000\000J4\000\000\000\000\000\000=\004\000\000\000\000\000\000\2730\000\000\000\000\000\000;$\000\000\000\000\000\000r.\000\000\000\000\000\000x)\000\000\000\000\000\000\321\022\000\000\000\000\000\000I:\000\000\000\000\000\000\217\016\000\000\000\000\000\000T1\000\000\000\000\000\000P\005\000\000\000\000\000\000\217)\000\000\000\000\000\000.\014\000\000\000\000\000\000\355\034\000\000\000\000\000\000,\035\000\000\000\000\000\000\022\022\000\000\000\000\000\000[)\000\000\000\000\000\000\303\033\000\000\000\000\000\000{9\000\000\000\000\000\000\352\n\000\000\000\000\000\000\347\004\000\000\000\000\000\000Z\010\000\000\000\000\000\00095\000\000\000\000\000\000^\"\000\000\000\000\000\000\241\005\000\000\000\000\000\000K\024\000\000\000\000\000\000\000\034\000\000\000\000\000\000X \000\000\000\000\000\000\367/\000\000\000\000\000\000..\000\000\000\000\000\000\022\036\000\000\000\000\000\000\277\030\000\000\000\000\000\000\351\035\000\000\000\000\000\000\264-\000\000\000\000\000\000\215\005\000\000\000\000\000\000\2149\000\000\000\000\000\000\0142\000\000\000\000\000\000s/\000\000\000\000\000\000k/\000\000\000\000\000\000c\005\000\000\000\000\000\000\3614\000\000\000\000\000\000e\034\000\000\000\000\000\000\025\032\000\000\000\000\000\000E\005\000\000\000\000\000\00024\000\000\000\000\000\000^\025\000\000\000\000\000\000\240\026\000\000\000\000\000\000r\003\000\000\000\000\000\000\272\016\000\000\000\000\000\000v\037\000\000\000\000\000\000\\\000\000\000\000\000\000\000b3\000\000\000\000\000\000\n&\000\000\000\000\000\000\036\030\000\000\000\000\000\000p\030\000\000\000\000\000\000\210.\000\000\000\000\000\000E\031\000\000\000\000\000\000\0326\000\000\000\000\000\000J1\000\000\000\000\000\000\355 \000\000\000\000\000\000\035\007\000\000\000\000\000\000])\000\000\000\000\000\000e\022\000\000\000\000\000\000\006,\000\000\000\000\000\000\020\003\000\000\000\000\000\000\337\024\000\000\000\000\000\000\2455\000\000\000\000\000\000=*\000\000\000\000\000\000\025\022\000\000\000\000\000\000\r\030\000\000\000\000\000\0001.\000\000\000\000\000\000\2706\000\000\000\000\000\000\264\004\000\000\000\000\000\000\341\016\000\000\000\000\000\000\0334\000\000\000\000\000\000\356)\000\000\000\000\000\000b\024\000\000\000\000\000\000}:\000\000\000\000\000\000\230\016\000\000\000\000\000\000l%\000\000\000\000\000\000\212\023\000\000\000\000\000\000\336\036\000\000\000\000\000\000\377\016\000\000\000\000\000\000\3554\000\000\000\000\000\000O)\000\000\000\000\000\000=/\000\000\000\000\000\000X!\000\000\000\000\000\000\t*\000\000\000\000\000\000\351$\000\000\000\000\000\000\360!\000\000\000\000\000\000\223-\000\000\000\000\000\000d\t\000\000\000\000\000\000\274\000\000\000\000\000\000\000\2618\000\000\000\000\000\0008\024\000\000\000\000\000\000\357%\000\000\000\000\000\0003\n\000\000\000\000\000\000\2720\000\000\000\000\000\000\017.\000\000\000\000\000\000\007\'\000\000\000\000\000\000\271\002\000\000\000\000\000\000\2218\000\000\000\000\000\000\367\006\000\000\000\000\000\000\030:\000\000\000\000\000\000\347\003\000\000\000\000\000\000A\000\000\000\000\000\000\000\373\000\000\000\000\000\000\000\257\005\000\000\000\000\000\000\2523\000\000\000\000\000\000G)\000\000\000\000\000\000U\026\000\000\000\000\000\000\263\'\000\000\000\000\000\000\377\n\000\000\000\000\000\000I\013\000\000\000\000\000\000~\017\000\000\000\000\000\000\233\016\000\000\000\000\000\000\0165\000\000\000\000\000\000\202\021\000\000\000\000\000\000\303,\000\000\000\000\000\000\3356\000\000\000\000\000\000v7\000\000\000\000\000\000\325\030\000\000\000\000\000\000\261\025\000\000\000\000\000\000I\030\000\000\000\000\000\000\260!\000\000\000\000\000\000\356\004\000\000\000\000\000\000\2157\000\000\000\000\000\000\237\035\000\000\000\000\000\000\300(\000\000\000\000\000\000\317\014\000\000\000\000\000\000X#\000\000\000\000\000\000J\010\000\000\000\000\000\000\033\004\000\000\000\000\000\000;/\000\000\000\000\000\000\023\020\000\000\000\000\000\000\326\t\000\000\000\000\000\000l\002\000\000\000\000\000\000\2154\000\000\000\000\000\000\266\n\000\000\000\000\000\000\335#\000\000\000\000\000\000\262\031\000\000\000\000\000\000\2171\000\000\000\000\000\000\3176\000\000\000\000\000\000\214%\000\000\000\000\000\000\343\t\000\000\000\000\000\000\275\034\000\000\000\000\000\000\343\013\000\000\000\000\000\000\201\022\000\000\000\000\000\000\267\007\000\000\000\000\000\000\211\007\000\000\000\000\000\000\227\035\000\000\000\000\000\000\1774\000\000\000\000\000\000C\002\000\000\000\000\000\000\0210\000\000\000\000\000\000\0075\000\000\000\000\000\000\356)\000\000\000\000\000\0006\002\000\000\000\000\000\000S)\000\000\000\000\000\000\204\014\000\000\000\000\000\000k5\000\000\000\000\000\000Y\035\000\000\000\000\000\000\2130\000\000\000\000\000\000\3676\000\000\000\000\000\000\2765\000\000\000\000\000\000|5\000\000\000\000\000\000\263\036\000\000\000\000\000\000U\027\000\000\000\000\000\000j\024\000\000\000\000\000\000d%\000\000\000\000\000\000\327+\000\000\000\000\000\000\220\032\000\000\000\000\000\000\303\030\000\000\000\000\000\000\225\017\000\000\000\000\000\000N \000\000\000\000\000\000U+\000\000\000\000\000\000T\023\000\000\000\000\000\000\363-\000\000\000\000\000\000\211\010\000\000\000\000\000\000\361\026\000\000\000\000\000\000\3361\000\000\000\000\000\000\2426\000\000\000\000\000\000+5\000\000\000\000\000\000\350\'\000\000\000\000\000\000\353\006\000\000\000\000\000\0005%\000\000\000\000\000\000\204-\000\000\000\000\000\000\014:\000\000\000\000\000\000%\n\000\000\000\000\000\000\004\'\000\000\000\000\000\000M\001\000\000\000\000\000\000\010\006\000\000\000\000\000\000\351\010\000\000\000\000\000\000\0103\000\000\000\000\000\0006\031\000\000\000\000\000\000#4\000\000\000\000\000\000`!\000\000\000\000\000\000\027\022\000\000\000\000\000\000\216\022\000\000\000\000\000\000\202\016\000\000\000\000\000\000\000\013\000\000\000\000\000\000f\n\000\000\000\000\000\000\342\t\000\000\000\000\000\000\007\006\000\000\000\000\000\000\360\036\000\000\000\000\000\000\3367\000\000\000\000\000\000i6\000\000\000\000\000\000\366\000\000\000\000\000\000\000\t\032\000\000\000\000\000\000@*\000\000\000\000\000\000N7\000\000\000\000\000\000X*\000\000\000\000\000\000\357/\000\000\000\000\000\000\345\024\000\000\000\000\000\0005-\000\000\000\000\000\000\314\005\000\000\000\000\000\000B8\000\000\000\000\000\000;\n\000\000\000\000\000\000\024\001\000\000\000\000\000\000u/\000\000\000\000\000\000\362\033\000\000\000\000\000\000\343+\000\000\000\000\000\000\270\013\000\000\000\000\000\000\323\023\000\000\000\000\000\000y\000\000\000\000\000\000\000\256\002\000\000\000\000\000\000\357\035\000\000\000\000\000\000Z\025\000\000\000\000\000\000\234\014\000\000\000\000\000\000Z0\000\000\000\000\000\000\255%\000\000\000\000\000\000%\037\000\000\000\000\000\000E\014\000\000\000\000\000\000\235\025\000\000\000\000\000\000\360\036\000\000\000\000\000\000\273)\000\000\000\000\000\000\345&\000\000\000\000\000\000J\000\000\000\000\000\000\000@,\000\000\000\000\000\000\014\020\000\000\000\000\000\000\031\025\000\000\000\000\000\000\3216\000\000\000\000\000\000\306\001\000\000\000\000\000\000=\002\000\000\000\000\000\000\2204\000\000\000\000\000\000E\016\000\000\000\000\000\000r8\000\000\000\000\000\000\3745\000\000\000\000\000\000v\010\000\000\000\000\000\000\210\035\000\000\000\000\000\000w\037\000\000\000\000\000\000\344\026\000\000\000\000\000\000\234\002\000\000\000\000\000\000\005\022\000\000\000\000\000\000\343\024\000\000\000\000\000\000\262\022\000\000\000\000\000\000/\023\000\000\000\000\000\000\2757\000\000\000\000\000\000\311\t\000\000\000\000\000\000\225\021\000\000\000\000\000\000\377*\000\000\000\000\000\000\300\006\000\000\000\000\000\000\243\n\000\000\000\000\000\000\325+\000\000\000\000\000\000N/\000\000\000\000\000\000\212\034\000\000\000\000\000\000\342\005\000\000\000\000\000\000\323.\000\000\000\000\000\000\027,\000\000\000\000\000\000\2175\000\000\000\000\000\000\271\027\000\000\000\000\000\000\346*\000\000\000\000\000\000q\025\000\000\000\000\000\000\316&\000\000\000\000\000\000\236\035\000\000\000\000\000\000P\032\000\000\000\000\000\000\345\r\000\000\000\000\000\000\372\n\000\000\000\000\000\000\345\t\000\000\000\000\000\000\2643\000\000\000\000\000\000j-\000\000\000\000\000\000,3\000\000\000\000\000\0006\013\000\000\000\000\000\000\2376\000\000\000\000\000\000\017&\000\000\000\000\000\000m\027\000\000\000\000\000\000\341\n\000\000\000\000\000\000$9\000\000\000\000\000\000\226%\000\000\000\000\000\000j+\000\000\000\000\000\000\2142\000\000\000\000\000\000\200:\000\000\000\000\000\000~\036\000\000\000\000\000\000\263\035\000\000\000\000\000\000\313\024\000\000\000\000\000\000\225\000\000\000\000\000\000\000J\010\000\000\000\000\000\000\242(\000\000\000\000\000\000(%\000\000\000\000\000\000=%\000\000\000\000\000\000\2267\000\000\000\000\000\000\036\017\000\000\000\000\000\000F%\000\000\000\000\000\000\366\014\000\000\000\000\000\000\351\007\000\000\000\000\000\000L%\000\000\000\000\000\000\322\036\000\000\000\000\000\000\363.\000\000\000\000\000\000q\023\000\000\000\000\000\000Z/\000\000\000\000\000\000\n\025\000\000\000\000\000\000\3661\000\000\000\000\000\000\202\t\000\000\000\000\000\000T2\000\000\000\000\000\000\274%\000\000\000\000\000\000H\000\000\000\000\000\000\000\2731\000\000\000\000\000\000\277\023\000\000\000\000\000\000l(\000\000\000\000\000\000\203\"\000\000\000\000\000\000|\"\000\000\000\000\000\000i\003\000\000\000\000\000\000\3112\000\000\000\000\000\000S-\000\000\000\000\000\000\220\001\000\000\000\000\000\000\035\030\000\000\000\000\000\000\2530\000\000\000\000\000\000\370+\000\000\000\000\000\000\023(\000\000\000\000\000\0000&\000\000\000\000\000\000\272\017\000\000\000\000\000\000s\025\000\000\000\000\000\000\307\t\000\000\000\000\000\000r\031\000\000\000\000\000\000\2174\000\000\000\000\000\000@4\000\000\000\000\000\000b\014\000\000\000\000\000\000\004\034\000\000\000\000\000\000\251/\000\000\000\000\000\000\2536\000\000\000\000\000\0007\035\000\000\000\000\000\000J \000\000\000\000\000\000\254\"\000\000\000\000\000\000{\002\000\000\000\000\000\000L\002\000\000\000\000\000\000\2354\000\000\000\000\000\000[\006\000\000\000\000\000\000\000\030\000\000\000\000\000\0001:\000\000\000\000\000\000U\t\000\000\000\000\000\000\312\"\000\000\000\000\000\000g\032\000\000\000\000\000\000A,\000\000\000\000\000\0000,\000\000\000\000\000\000J\001\000\000\000\000\000\000\346\006\000\000\000\000\000\000\\\022\000\000\000\000\000\000\337\023\000\000\000\000\000\000%%\000\000\000\000\000\000\2469\000\000\000\000\000\000\t9\000\000\000\000\000\000\r6\000\000\000\000\000\000\265)\000\000\000\000\000\000x\t\000\000\000\000\000\000\2668\000\000\000\000\000\000J\032\000\000\000\000\000\000-\004\000\000\000\000\000\000\006$\000\000\000\000\000\000\3625\000\000\000\000\000\000\3661\000\000\000\000\000\000\230\010\000\000\000\000\000\000\3024\000\000\000\000\000\000I+\000\000\000\000\000\000\222\002\000\000\000\000\000\000\261\"\000\000\000\000\000\000\004\021\000\000\000\000\000\000f*\000\000\000\000\000\000\0073\000\000\000\000\000\000\3214\000\000\000\000\000\000I+\000\000\000\000\000\000\004\t\000\000\000\000\000\000G\033\000\000\000\000\000\000m5\000\000\000\000\000\000\344!\000\000\000\000\000\000\320\007\000\000\000\000\000\000Y5\000\000\000\000\000\000\366\016\000\000\000\000\000\000\263\034\000\000\000\000\000\000m\036\000\000\000\000\000\000\000+\000\000\000\000\000\000\345\'\000\000\000\000\000\000\211:\000\000\000\000\000\000#\023\000\000\000\000\000\000S\023\000\000\000\000\000\000]#\000\000\000\000\000\000\013\027\000\000\000\000\000\000\r\036\000\000\000\000\000\000\233%\000\000\000\000\000\000\2737\000\000\000\000\000\000`\004\000\000\000\000\000\000\336\000\000\000\000\000\000\000\003%\000\000\000\000\000\000\032:\000\000\000\000\000\000\333)\000\000\000\000\000\000#\004\000\000\000\000\000\000p1\000\000\000\000\000\000\r\"\000\000\000\000\000\000Q\027\000\000\000\000\000\000H3\000\000\000\000\000\000\246\002\000\000\000\000\000\0001:\000\000\000\000\000\000B3\000\000\000\000\000\000\307\007\000\000\000\000\000\000W\'\000\000\000\000\000\000#\024\000\000\000\000\000\000<\t\000\000\000\000\000\000\010\023\000\000\000\000\000\000x9\000\000\000\000\000\000\354\026\000\000\000\000\000\000\343%\000\000\000\000\000\000\230\036\000\000\000\000\000\000b7\000\000\000\000\000\000\341)\000\000\000\000\000\000\322,\000\000\000\000\000\000\371*\000\000\000\000\000\000\373\006\000\000\000\000\000\000\240!\000\000\000\000\000\000#\'\000\000\000\000\000\000\2403\000\000\000\000\000\000\r\032\000\000\000\000\000\000\3656\000\000\000\000\000\000\240%\000\000\000\000\000\000\311\002\000\000\000\000\000\000\002)\000\000\000\000\000\000\226\t\000\000\000\000\000\000/\017\000\000\000\000\000\000\341\037\000\000\000\000\000\000\375\024\000\000\000\000\000\000\270\002\000\000\000\000\000\000\305\"\000\000\000\000\000\000_*\000\000\000\000\000\000\262\035\000\000\000\000\000\000{\r\000\000\000\000\000\000\316-\000\000\000\000\000\000\220\003\000\000\000\000\000\000\322\r\000\000\000\000\000\000\035\025\000\000\000\000\000\0008\037\000\000\000\000\000\000u(\000\000\000\000\000\000\211/\000\000\000\000\000\000\035\n\000\000\000\000\000\000T\031\000\000\000\000\000\000\220\037\000\000\000\000\000\000\013\002\000\000\000\000\000\000\207\'\000\000\000\000\000\000W)\000\000\000\000\000\000j\013\000\000\000\000\000\000\033\037\000\000\000\000\000\000~,\000\000\000\000\000\000\225$\000\000\000\000\000\000\350\002\000\000\000\000\000\000#\002\000\000\000\000\000\000,\030\000\000\000\000\000\000\356)\000\000\000\000\000\000\014\'\000\000\000\000\000\000\037,\000\000\000\000\000\000\005,\000\000\000\000\000\000\350\000\000\000\000\000\000\000\2049\000\000\000\000\000\000C\014\000\000\000\000\000\000\0030\000\000\000\000\000\000\303\"\000\000\000\000\000\000\260(\000\000\000\000\000\000\2333\000\000\000\000\000\000\204\001\000\000\000\000\000\000\313\013\000\000\000\000\000\000\2123\000\000\000\000\000\000r5\000\000\000\000\000\000\235\010\000\000\000\000\000\000j!\000\000\000\000\000\000\273%\000\000\000\000\000\000\017 \000\000\000\000\000\000\2229\000\000\000\000\000\000\364,\000\000\000\000\000\000\222/\000\000\000\000\000\000\317-\000\000\000\000\000\000&9\000\000\000\000\000\000E\007\000\000\000\000\000\000&7\000\000\000\000\000\000C7\000\000\000\000\000\000q\"\000\000\000\000\000\000\017\035\000\000\000\000\000\000\260+\000\000\000\000\000\000\235\010\000\000\000\000\000\0007/\000\000\000\000\000\000\007%\000\000\000\000\000\000\236\r\000\000\000\000\000\000_\020\000\000\000\000\000\000>\003\000\000\000\000\000\000\013\035\000\000\000\000\000\000t)\000\000\000\000\000\000\3171\000\000\000\000\000\000&.\000\000\000\000\000\000Z\'\000\000\000\000\000\000\2106\000\000\000\000\000\000\265$\000\000\000\000\000\000\0240\000\000\000\000\000\000\225 \000\000\000\000\000\000L&\000\000\000\000\000\000\2320\000\000\000\000\000\000s\032\000\000\000\000\000\000\270\014\000\000\000\000\000\000\223&\000\000\000\000\000\000\334\007\000\000\000\000\000\000/0\000\000\000\000\000\000u\000\000\000\000\000\000\000\242\t\000\000\000\000\000\000Z\n\000\000\000\000\000\000\347%\000\000\000\000\000\000I\032\000\000\000\000\000\000\211\003\000\000\000\000\000\000\212\033\000\000\000\000\000\000\363(\000\000\000\000\000\000[5\000\000\000\000\000\000\206\026\000\000\000\000\000\000i0\000\000\000\000\000\000I\010\000\000\000\000\000\000\302!\000\000\000\000\000\000\352 \000\000\000\000\000\000\262\033\000\000\000\000\000\000\226\001\000\000\000\000\000\000\2112\000\000\000\000\000\000$9\000\000\000\000\000\000\352\032\000\000\000\000\000\000#-\000\000\000\000\000\000\3507\000\000\000\000\000\000\375#\000\000\000\000\000\000\211\003\000\000\000\000\000\000\323\030\000\000\000\000\000\000\202%\000\000\000\000\000\000\375\033\000\000\000\000\000\000h0\000\000\000\000\000\000\222\000\000\000\000\000\000\000\205\020\000\000\000\000\000\000\230\032\000\000\000\000\000\000\324\006\000\000\000\000\000\000\265\010\000\000\000\000\000\000R*\000\000\000\000\000\000C/\000\000\000\000\000\000\002 \000\000\000\000\000\000\251\t\000\000\000\000\000\000\302\033\000\000\000\000\000\000\2402\000\000\000\000\000\000\317\r\000\000\000\000\000\000\276\007\000\000\000\000\000\000&%\000\000\000\000\000\000\007\031\000\000\000\000\000\000\3732\000\000\000\000\000\000\016\005\000\000\000\000\000\000\0346\000\000\000\000\000\000\206\031\000\000\000\000\000\000\233\r\000\000\000\000\000\000\3455\000\000\000\000\000\000\270/\000\000\000\000\000\000\227\022\000\000\000\000\000\000\260\023\000\000\000\000\000\000\343.\000\000\000\000\000\000j\001\000\000\000\000\000\0008,\000\000\000\000\000\000P$\000\000\000\000\000\000{)\000\000\000\000\000\000\032\016\000\000\000\000\000\000\251\031\000\000\000\000\000\0003\031\000\000\000\000\000\000i\020\000\000\000\000\000\000g/\000\000\000\000\000\000\217\022\000\000\000\000\000\000\3520\000\000\000\000\000\000X\010\000\000\000\000\000\000y\005\000\000\000\000\000\000q\016\000\000\000\000\000\000s\000\000\000\000\000\000\000\2541\000\000\000\000\000\000\240\035\000\000\000\000\000\000\376(\000\000\000\000\000\000h&\000\000\000\000\000\000/\027\000\000\000\000\000\000\216\006\000\000\000\000\000\000>+\000\000\000\000\000\000\301,\000\000\000\000\000\000\320%\000\000\000\000\000\000\252\000\000\000\000\000\000\000\364\017\000\000\000\000\000\000\346\027\000\000\000\000\000\000y\014\000\000\000\000\000\000`\021\000\000\000\000\000\000\324\010\000\000\000\000\000\000N#\000\000\000\000\000\000\'\027\000\000\000\000\000\000=$\000\000\000\000\000\000\031:\000\000\000\000\000\000K\005\000\000\000\000\000\000\224\013\000\000\000\000\000\000\313-\000\000\000\000\000\000\330\r\000\000\000\000\000\000\027\004\000\000\000\000\000\000\312\035\000\000\000\000\000\000\320\017\000\000\000\000\000\000c3\000\000\000\000\000\000L\035\000\000\000\000\000\000\307\025\000\000\000\000\000\000\232\001\000\000\000\000\000\000W\"\000\000\000\000\000\000\303\017\000\000\000\000\000\000`\031\000\000\000\000\000\000A\020\000\000\000\000\000\000\036\031\000\000\000\000\000\000<\035\000\000\000\000\000\000W\"\000\000\000\000\000\000\035\031\000\000\000\000\000\000\215\n\000\000\000\000\000\000\270!\000\000\000\000\000\000\204&\000\000\000\000\000\000\246*\000\000\000\000\000\000\241\030\000\000\000\000\000\0001\030\000\000\000\000\000\000-\002\000\000\000\000\000\000\245\025\000\000\000\000\000\000\230,\000\000\000\000\000\000\272 \000\000\000\000\000\000m$\000\000\000\000\000\000\2151\000\000\000\000\000\000\002&\000\000\000\000\000\000i!\000\000\000\000\000\000\333\"\000\000\000\000\000\000\354\001\000\000\000\000\000\000b:\000\000\000\000\000\000\177\023\000\000\000\000\000\000\0315\000\000\000\000\000\000\177\004\000\000\000\000\000\000\'4\000\000\000\000\000\000\204)\000\000\000\000\000\000\262\027\000\000\000\000\000\000\355*\000\000\000\000\000\000+\025\000\000\000\000\000\000a\030\000\000\000\000\000\000\212\'\000\000\000\000\000\000W1\000\000\000\000\000\000\315\031\000\000\000\000\000\000S)\000\000\000\000\000\000\231\034\000\000\000\000\000\000\227\006\000\000\000\000\000\000\276&\000\000\000\000\000\000\236\017\000\000\000\000\000\000\027!\000\000\000\000\000\000\007\'\000\000\000\000\000\000\302*\000\000\000\000\000\000\372\013\000\000\000\000\000\000H:\000\000\000\000\000\000\341\016\000\000\000\000\000\000D\t\000\000\000\000\000\000\232\035\000\000\000\000\000\000\014.\000\000\000\000\000\000\354&\000\000\000\000\000\000\231\014\000\000\000\000\000\0008.\000\000\000\000\000\000\335\r\000\000\000\000\000\000\310-\000\000\000\000\000\000\353-\000\000\000\000\000\000\2217\000\000\000\000\000\000\335\000\000\000\000\000\000\000\027\003\000\000\000\000\000\000p4\000\000\000\000\000\000\374\n\000\000\000\000\000\000\234\003\000\000\000\000\000\0004\032\000\000\000\000\000\000\335\026\000\000\000\000\000\000\256+\000\000\000\000\000\000\316!\000\000\000\000\000\000\3674\000\000\000\000\000\000\034\031\000\000\000\000\000\000\3733\000\000\000\000\000\000\376\003\000\000\000\000\000\000T\006\000\000\000\000\000\000\374\030\000\000\000\000\000\000q\t\000\000\000\000\000\000\3128\000\000\000\000\000\000\201#\000\000\000\000\000\000\007\005\000\000\000\000\000\000\3470\000\000\000\000\000\000\371\023\000\000\000\000\000\000\200\037\000\000\000\000\000\000\307\020\000\000\000\000\000\000\027\002\000\000\000\000\000\000Q-\000\000\000\000\000\000\211\'\000\000\000\000\000\000\211\007\000\000\000\000\000\000F\002\000\000\000\000\000\000e\"\000\000\000\000\000\000#$\000\000\000\000\000\000\266\005\000\000\000\000\000\000\266$\000\000\000\000\000\000\0359\000\000\000\000\000\000d \000\000\000\000\000\000\2624\000\000\000\000\000\000E\r\000\000\000\000\000\000V%\000\000\000\000\000\000\266,\000\000\000\000\000\000\250#\000\000\000\000\000\000\207\017\000\000\000\000\000\000\254$\000\000\000\000\000\000\270\023\000\000\000\000\000\00093\000\000\000\000\000\000\256\017\000\000\000\000\000\0003\020\000\000\000\000\000\000\234\020\000\000\000\000\000\000\202\020\000\000\000\000\000\000e7\000\000\000\000\000\000k\005\000\000\000\000\000\000\r\000\000\000\000\000\000\000\3529\000\000\000\000\000\000\274)\000\000\000\000\000\000~\035\000\000\000\000\000\000\301\r\000\000\000\000\000\000\017\034\000\000\000\000\000\000\264/\000\000\000\000\000\000\245\001\000\000\000\000\000\000%:\000\000\000\000\000\000L3\000\000\000\000\000\000\364,\000\000\000\000\000\000\0344\000\000\000\000\000\000\007%\000\000\000\000\000\000g\035\000\000\000\000\000\000\2769\000\000\000\000\000\000^!\000\000\000\000\000\000\3256\000\000\000\000\000\000\323\024\000\000\000\000\000\000\2245\000\000\000\000\000\000\200*\000\000\000\000\000\000\370\005\000\000\000\000\000\000\'\013\000\000\000\000\000\000\213\032\000\000\000\000\000\0003\007\000\000\000\000\000\000\230\017\000\000\000\000\000\000\330\033\000\000\000\000\000\000\201\016\000\000\000\000\000\000\264.\000\000\000\000\000\000X\025\000\000\000\000\000\000\332)\000\000\000\000\000\000\232\r\000\000\000\000\000\000p\036\000\000\000\000\000\0009\000\000\000\000\000\000\000\370*\000\000\000\000\000\000:\030\000\000\000\000\000\000\2206\000\000\000\000\000\000\377\031\000\000\000\000\000\000d\005\000\000\000\000\000\000Z\'\000\000\000\000\000\000\376\003\000\000\000\000\000\000\034\r\000\000\000\000\000\000\376\024\000\000\000\000\000\000e 